{
  "version": "1.0",
  "truncation": null,
  "padding": null,
  "added_tokens": [
    {
      "id": 0,
      "content": "<|endoftext|>",
      "single_word": false,
      "lstrip": false,
      "rstrip": false,
      "normalized": false,
      "special": true
    },
    {
      "id": 1,
      "content": "<PAD>",
      "single_word": false,
      "lstrip": false,
      "rstrip": false,
      "normalized": false,
      "special": true
    },
    {
      "id": 2,
      "content": "<UNK>",
      "single_word": false,
      "lstrip": false,
      "rstrip": false,
      "normalized": false,
      "special": true
    }
  ],
  "normalizer": null,
  "pre_tokenizer": {
    "type": "ByteLevel",
    "add_prefix_space": false,
    "trim_offsets": true,
    "use_regex": true
  },
  "post_processor": null,
  "decoder": {
    "type": "ByteLevel",
    "add_prefix_space": true,
    "trim_offsets": true,
    "use_regex": true
  },
  "model": {
    "type": "BPE",
    "dropout": null,
    "unk_token": null,
    "continuing_subword_prefix": null,
    "end_of_word_suffix": null,
    "fuse_unk": false,
    "byte_fallback": false,
    "ignore_merges": false,
    "vocab": {
      "<|endoftext|>": 0,
      "<PAD>": 1,
      "<UNK>": 2,
      "$": 3,
      "'": 4,
      "(": 5,
      ")": 6,
      ",": 7,
      "-": 8,
      ".": 9,
      "/": 10,
      "0": 11,
      "1": 12,
      "2": 13,
      "3": 14,
      "4": 15,
      "5": 16,
      "6": 17,
      "7": 18,
      "8": 19,
      "9": 20,
      ":": 21,
      "<": 22,
      ">": 23,
      "A": 24,
      "B": 25,
      "C": 26,
      "D": 27,
      "E": 28,
      "F": 29,
      "G": 30,
      "H": 31,
      "I": 32,
      "J": 33,
      "K": 34,
      "L": 35,
      "M": 36,
      "N": 37,
      "O": 38,
      "P": 39,
      "Q": 40,
      "R": 41,
      "S": 42,
      "T": 43,
      "U": 44,
      "V": 45,
      "W": 46,
      "X": 47,
      "Y": 48,
      "Z": 49,
      "_": 50,
      "a": 51,
      "b": 52,
      "c": 53,
      "d": 54,
      "e": 55,
      "f": 56,
      "g": 57,
      "h": 58,
      "i": 59,
      "j": 60,
      "k": 61,
      "l": 62,
      "m": 63,
      "n": 64,
      "o": 65,
      "p": 66,
      "q": 67,
      "r": 68,
      "s": 69,
      "t": 70,
      "u": 71,
      "v": 72,
      "w": 73,
      "x": 74,
      "y": 75,
      "¨": 76,
      "©": 77,
      "Ã": 78,
      "â": 79,
      "Ġ": 80,
      "Ģ": 81,
      "Ļ": 82,
      "Ġd": 83,
      "un": 84,
      "on": 85,
      "Ã©": 86,
      "ti": 87,
      "tion": 88,
      "an": 89,
      "le": 90,
      "Ã©c": 91,
      "ou": 92,
      "ch": 93,
      "une": 94,
      "lo": 95,
      "Ġb": 96,
      "log": 97,
      "ue": 98,
      "ction": 99,
      "Ex": 100,
      "out": 101,
      "ution": 102,
      "Ã©cution": 103,
      "Ġbout": 104,
      "ExÃ©cution": 105,
      "Ġbouton": 106,
      "cha": 107,
      "ai": 108,
      "me": 109,
      "re": 110,
      "lection": 111,
      "Ã©lection": 112,
      "ie": 113,
      "Ġun": 114,
      "SÃ©lection": 115,
      "$,": 116,
      "ge": 117,
      "ran": 118,
      "ĠÃ©c": 119,
      "ĠÃ©cran": 120,
      "alog": 121,
      "ialog": 122,
      "Ġdialog": 123,
      "Ġdialogue": 124,
      "ic": 125,
      "ais": 126,
      "aisie": 127,
      "Ġdan": 128,
      "Ġdans": 129,
      "mp": 130,
      "Saisie": 131,
      "er": 132,
      "in": 133,
      "Ġcha": 134,
      "Ġchamp": 135,
      "fi": 136,
      "nt": 137,
      "fo": 138,
      "ri": 139,
      "Af": 140,
      "chage": 141,
      "fichage": 142,
      "Affichage": 143,
      "lle": 144,
      "tr": 145,
      "info": 146,
      "ce": 147,
      "ment": 148,
      "logic": 149,
      "infologic": 150,
      "Ġs": 151,
      "tu": 152,
      "ture": 153,
      "ance": 154,
      "ontr": 155,
      "Fer": 156,
      "meture": 157,
      "Fermeture": 158,
      "),": 159,
      "olle": 160,
      "ontrolle": 161,
      "ontroller": 162,
      "Lance": 163,
      "Lancement": 164,
      "que": 165,
      "Ġg": 166,
      "rique": 167,
      "st": 168,
      "rm": 169,
      "our": 170,
      "ur": 171,
      "Ġa": 172,
      "lic": 173,
      "Ġsur": 174,
      "Controller": 175,
      "ac": 176,
      "ble": 177,
      "rÃ©": 178,
      "Ġaction": 179,
      "nÃ©": 180,
      "Ã©nÃ©": 181,
      "ĠgÃ©nÃ©": 182,
      "ĠgÃ©nÃ©rique": 183,
      "od": 184,
      "mod": 185,
      "gle": 186,
      "âĢ": 187,
      "Ġon": 188,
      "glet": 189,
      "âĢĻ": 190,
      "Ġonglet": 191,
      "age": 192,
      "ore": 193,
      "TE": 194,
      "Ġde": 195,
      "Ġt": 196,
      "ule": 197,
      "module": 198,
      "modules": 199,
      "acc": 200,
      "IN": 201,
      "ation": 202,
      "core": 203,
      "ci": 204,
      "Racc": 205,
      "ourci": 206,
      "Raccourci": 207,
      ")<": 208,
      "che": 209,
      "DE": 210,
      "CrÃ©": 211,
      "CrÃ©ation": 212,
      "lan": 213,
      "Ch": 214,
      "Fo": 215,
      "Form": 216,
      ">,": 217,
      "Re": 218,
      "ain": 219,
      "Chain": 220,
      "Chainage": 221,
      "Dou": 222,
      "clic": 223,
      "Double": 224,
      "at": 225,
      "Fi": 226,
      "Ret": 227,
      "Retour": 228,
      "Clic": 229,
      "Ġune": 230,
      "MA": 231,
      "VT": 232,
      "or": 233,
      "ui": 234,
      "CO": 235,
      "gui": 236,
      "controller": 237,
      "controllers": 238,
      "ast": 239,
      "oast": 240,
      "Ġtoast": 241,
      "10": 242,
      "ST": 243,
      "cher": 244,
      "cherche": 245,
      "ist": 246,
      "hist": 247,
      "orique": 248,
      "historique": 249,
      "Ġre": 250,
      "rille": 251,
      "Ġgrille": 252,
      "Ġrecherche": 253,
      "able": 254,
      "ul": 255,
      "Ġtable": 256,
      "AC": 257,
      "15": 258,
      "en": 259,
      "OR": 260,
      "tat": 261,
      "MAIN": 262,
      "aire": 263,
      "nin": 264,
      "lannin": 265,
      "lanning": 266,
      "te": 267,
      "form": 268,
      "CR": 269,
      "MAINT": 270,
      "20": 271,
      "GP": 272,
      "Ent": 273,
      "ulaire": 274,
      "Ġen": 275,
      "Ġform": 276,
      "Ġsaisie": 277,
      "rÃ©e": 278,
      "EntrÃ©e": 279,
      "Ġformulaire": 280,
      "ĠT": 281,
      "trage": 282,
      "ltrage": 283,
      "Ġ/": 284,
      "Filtrage": 285,
      "ĠTri": 286,
      "25": 287,
      "CRM": 288,
      "la": 289,
      "crm": 290,
      "30": 291,
      "DEF": 292,
      "DI": 293,
      "fla": 294,
      "Ġfla": 295,
      "Ġflag": 296,
      "kController": 297,
      "ier": 298,
      "chier": 299,
      "lÃ©": 300,
      "ĠÃ©": 301,
      "lÃ©ment": 302,
      "ĠÃ©lÃ©ment": 303,
      "Blan": 304,
      "BlankController": 305,
      "EDI": 306,
      "35": 307,
      "ES": 308,
      "40": 309,
      "45": 310,
      "DEV": 311,
      "est": 312,
      "In": 313,
      "60": 314,
      "AT": 315,
      "au": 316,
      "ed": 317,
      "TEC": 318,
      "70": 319,
      "65": 320,
      "ord": 321,
      "ested": 322,
      "75": 323,
      "80": 324,
      ">$": 325,
      "LA": 326,
      "OT": 327,
      "85": 328,
      "ga": 329,
      "orga": 330,
      "Ġstat": 331,
      "90": 332,
      "95": 333,
      "AL": 334,
      "Ac": 335,
      "Ġbord": 336,
      "Ġtableau": 337,
      "acti": 338,
      "SV": 339,
      "GES": 340,
      "NN": 341,
      "TES": 342,
      "TI": 343,
      "GESCO": 344,
      "CP": 345,
      "JCP": 346,
      "24": 347,
      "planning": 348,
      "Planning": 349,
      "PlanningController": 350,
      "TR": 351,
      "ACTI": 352,
      "VI": 353,
      "ome": 354,
      "tForm": 355,
      "23": 356,
      "DÃ©": 357,
      "se": 358,
      "iew": 359,
      "sController": 360,
      "ER": 361,
      "Fichier": 362,
      "nested": 363,
      "pu": 364,
      "Inpu": 365,
      "FichiersController": 366,
      "Co": 367,
      "sÃ©lection": 368,
      "DÃ©sÃ©lection": 369,
      "InputForm": 370,
      "Action": 371,
      "03": 372,
      "ba": 373,
      "Acti": 374,
      "PLA": 375,
      "ING": 376,
      "NNING": 377,
      "PLANNING": 378,
      "il": 379,
      "ueil": 380,
      "ACTIVI": 381,
      "ACTIVITES": 382,
      "mpte": 383,
      "infoc": 384,
      "vi": 385,
      "COM": 386,
      "07": 387,
      "IL": 388,
      "if": 389,
      "nce": 390,
      "bore": 391,
      "rbore": 392,
      "sce": 393,
      "Ġarbore": 394,
      "scence": 395,
      "Ġarborescence": 396,
      "FB": 397,
      "FBController": 398,
      "fichier": 399,
      "base": 400,
      "fichierbase": 401,
      "Stat": 402,
      "stat": 403,
      "modif": 404,
      "StatFBController": 405,
      "statmodif": 406,
      "vite": 407,
      "IC": 408,
      ")$": 409,
      "INST": 410,
      "EB": 411,
      "WEB": 412,
      "si": 413,
      "tier": 414,
      "antier": 415,
      "Compte": 416,
      "Inst": 417,
      "UR": 418,
      "chec": 419,
      "ON": 420,
      "bo": 421,
      "kbo": 422,
      "Ġchec": 423,
      "kbox": 424,
      "Ġcheckbox": 425,
      "11": 426,
      "INSTAL": 427,
      "00": 428,
      "TRA": 429,
      "STD": 430,
      "do": 431,
      "Win": 432,
      "dow": 433,
      "Window": 434,
      "View": 435,
      "Nested": 436,
      "NestedWindow": 437,
      "IER": 438,
      "55": 439,
      "FIC": 440,
      "FICH": 441,
      "FICHIER": 442,
      "NO": 443,
      "VA": 444,
      "el": 445,
      "PR": 446,
      "TRAVA": 447,
      "FICHIERTRAVA": 448,
      "FICHIERTRAVAIL": 449,
      "InputFormNestedWindow": 450,
      "Instance": 451,
      "InstanceForm": 452,
      "OP": 453,
      "reur": 454,
      "Ġer": 455,
      "Ġerreur": 456,
      "12": 457,
      "Home": 458,
      "HomeView": 459,
      "CU": 460,
      "TEUR": 461,
      "LATEUR": 462,
      "INSTALLATEUR": 463,
      "COMP": 464,
      "COMPTE": 465,
      "AR": 466,
      "nd": 467,
      "ndu": 468,
      "TEL": 469,
      "TEST": 470,
      "PAR": 471,
      "AM": 472,
      "PARAM": 473,
      "accueil": 474,
      "13": 475,
      "De": 476,
      "ION": 477,
      "cueil": 478,
      "Accueil": 479,
      "EM": 480,
      "DEVOP": 481,
      "DEVOPS": 482,
      "home": 483,
      "view": 484,
      "is": 485,
      "AccueilController": 486,
      "homeview": 487,
      "OB": 488,
      "InputFormHomeView": 489,
      "de": 490,
      "OL": 491,
      "Fiche": 492,
      "SE": 493,
      "CompteForm": 494,
      "14": 495,
      "IMA": 496,
      "MIN": 497,
      "TELEM": 498,
      "IMAL": 499,
      "MINIMAL": 500,
      "COOL": 501,
      "ALCOOL": 502,
      "50": 503,
      "activite": 504,
      "man": 505,
      "mande": 506,
      "ote": 507,
      "Note": 508,
      "co": 509,
      "fiche": 510,
      "ET": 511,
      "Activite": 512,
      "ActiFiche": 513,
      "ficheactivite": 514,
      "ActiviteController": 515,
      "ActiFicheActiviteController": 516,
      "ERS": 517,
      "ACE": 518,
      "TRACE": 519,
      "es": 520,
      "sion": 521,
      "BU": 522,
      "BUG": 523,
      "AN": 524,
      "pan": 525,
      "Ġpan": 526,
      "Ġpanel": 527,
      "An": 528,
      "MES": 529,
      "ORForm": 530,
      "Demande": 531,
      "CON": 532,
      "GA": 533,
      "ORGA": 534,
      "Chantier": 535,
      "16": 536,
      "TESTOB": 537,
      "TESTOBS": 538,
      "INF": 539,
      "chantier": 540,
      "EIL": 541,
      "ACCU": 542,
      "ACCUEIL": 543,
      "TAC": 544,
      "17": 545,
      "HE": 546,
      "INFO": 547,
      "PRO": 548,
      "Dis": 549,
      "mul": 550,
      "simul": 551,
      "Dissimul": 552,
      "Dissimulation": 553,
      "DB": 554,
      "al": 555,
      "18": 556,
      "erv": 557,
      "Com": 558,
      "TACHE": 559,
      "100": 560,
      "DEMA": 561,
      "NDE": 562,
      "NOTE": 563,
      "ETAT": 564,
      "RE": 565,
      "NOTES": 566,
      "OC": 567,
      "EL": 568,
      "ChantierForm": 569,
      "Ver": 570,
      "sionForm": 571,
      "VERS": 572,
      "NoteVer": 573,
      "NOTEVERS": 574,
      "NoteVersionForm": 575,
      "NOTEVERSION": 576,
      "19": 577,
      "115": 578,
      "120": 579,
      "DOC": 580,
      "DEMANDE": 581,
      "ve": 582,
      "compte": 583,
      "rendu": 584,
      "Rendu": 585,
      "CompteRendu": 586,
      "compterendu": 587,
      "CompteRenduForm": 588,
      "125": 589,
      "DemandeCom": 590,
      "DEMANDECOM": 591,
      "DemandeComORForm": 592,
      "ntes": 593,
      "ventes": 594,
      "130": 595,
      "135": 596,
      "140": 597,
      "105": 598,
      "pp": 599,
      "145": 600,
      "ro": 601,
      "160": 602,
      "001": 603,
      "ANAL": 604,
      "165": 605,
      "170": 606,
      "175": 607,
      "180": 608,
      "CCR": 609,
      "saisie": 610,
      "EN": 611,
      "185": 612,
      "ATION": 613,
      "150": 614,
      "ontrat": 615,
      "190": 616,
      "YSE": 617,
      "ANALYSE": 618,
      "yse": 619,
      "alyse": 620,
      "EV": 621,
      "Analyse": 622,
      "aint": 623,
      "22": 624,
      "195": 625,
      "sForm": 626,
      "110": 627,
      "SaisieController": 628,
      "AnalyseSaisieController": 629,
      "PROJ": 630,
      "Pro": 631,
      "SECU": 632,
      "IRE": 633,
      "MT": 634,
      "App": 635,
      "Appel": 636,
      "PREV": 637,
      "Int": 638,
      "200": 639,
      "ableau": 640,
      "GL": 641,
      "155": 642,
      "ActiPlanningController": 643,
      "ma": 644,
      "ne": 645,
      "av": 646,
      "glo": 647,
      "bal": 648,
      "global": 649,
      "ail": 650,
      "AppelN": 651,
      "ADEV": 652,
      "IADEV": 653,
      "Interv": 654,
      "PO": 655,
      "IS": 656,
      "DEM": 657,
      "avail": 658,
      "270": 659,
      "225": 660,
      "AIRE": 661,
      "ention": 662,
      "et": 663,
      "Proj": 664,
      "230": 665,
      "205": 666,
      "Ou": 667,
      "ver": 668,
      "Ouver": 669,
      "Ouverture": 670,
      "235": 671,
      "VAL": 672,
      "Projet": 673,
      "240": 674,
      "TRAT": 675,
      "CONTRAT": 676,
      "245": 677,
      "aireController": 678,
      "260": 679,
      "nu": 680,
      "265": 681,
      "CE": 682,
      "Per": 683,
      "son": 684,
      "Person": 685,
      "di": 686,
      "005": 687,
      "FAC": 688,
      "210": 689,
      "ANN": 690,
      "26": 691,
      "215": 692,
      "UAIRE": 693,
      "Annu": 694,
      "ANNUAIRE": 695,
      "AnnuaireController": 696,
      "220": 697,
      "250": 698,
      "275": 699,
      "285": 700,
      "280": 701,
      "LI": 702,
      "ANCE": 703,
      "NANCE": 704,
      "TENANCE": 705,
      "MAINTENANCE": 706,
      "Personne": 707,
      "290": 708,
      "ec": 709,
      "GM": 710,
      "ONN": 711,
      "gma": 712,
      "gmao": 713,
      "295": 714,
      "CONF": 715,
      "255": 716,
      "DEMTEST": 717,
      "MN": 718,
      "MNG": 719,
      "DEVIS": 720,
      "300": 721,
      "27": 722,
      "Notes": 723,
      "SU": 724,
      "dis": 725,
      "pat": 726,
      "dispat": 727,
      "dispatch": 728,
      "IVI": 729,
      "SUIVI": 730,
      "340": 731,
      "335": 732,
      "MAJ": 733,
      "345": 734,
      "LES": 735,
      "MU": 736,
      "305": 737,
      "CLI": 738,
      "ENT": 739,
      "CLIENT": 740,
      "310": 741,
      "ache": 742,
      "lie": 743,
      "lient": 744,
      "360": 745,
      "315": 746,
      "320": 747,
      "365": 748,
      "370": 749,
      "325": 750,
      "DP": 751,
      "PDP": 752,
      "330": 753,
      "ONNEL": 754,
      "PERS": 755,
      "PERSONNEL": 756,
      "llesForm": 757,
      "PersonnellesForm": 758,
      "NotesPersonnellesForm": 759,
      "PERSONNELLES": 760,
      "28": 761,
      "QU": 762,
      "380": 763,
      "375": 764,
      "GIC": 765,
      "OGIC": 766,
      "PROJET": 767,
      "TECPREV": 768,
      "MOB": 769,
      "MOBI": 770,
      "385": 771,
      "350": 772,
      "390": 773,
      "395": 774,
      "unch": 775,
      "VALFAC": 776,
      "ProjetORForm": 777,
      "355": 778,
      "Ġses": 779,
      "Ġsession": 780,
      "NIC": 781,
      "COMMU": 782,
      "NICATION": 783,
      "COMMUNICATION": 784,
      "com": 785,
      "400": 786,
      "29": 787,
      "410": 788,
      "contrat": 789,
      "415": 790,
      "445": 791,
      "US": 792,
      "420": 793,
      "Tr": 794,
      "425": 795,
      "440": 796,
      "460": 797,
      "435": 798,
      "sm": 799,
      "Contrat": 800,
      "Maint": 801,
      "ContratMaint": 802,
      "430": 803,
      "CONTRATMAINT": 804,
      "contratsm": 805,
      "contratsmaint": 806,
      "ContratMaintForm": 807,
      "465": 808,
      "fr": 809,
      "client": 810,
      "470": 811,
      "475": 812,
      "405": 813,
      "480": 814,
      "485": 815,
      "onTr": 816,
      "onTravail": 817,
      "490": 818,
      "495": 819,
      "POORGA": 820,
      "TION": 821,
      "QUAL": 822,
      "int": 823,
      "450": 824,
      "mun": 825,
      "commun": 826,
      "455": 827,
      "bord": 828,
      "tableau": 829,
      "tableaubord": 830,
      "LO": 831,
      "Tableau": 832,
      "Bord": 833,
      "TableauBord": 834,
      "La": 835,
      "TO": 836,
      "SI": 837,
      "DemandeInterv": 838,
      "DemandeIntervForm": 839,
      "Intervention": 840,
      "500": 841,
      "ervention": 842,
      "intervention": 843,
      "forms": 844,
      "TableauBordController": 845,
      "refo": 846,
      "Firefo": 847,
      "Firefox": 848,
      "TER": 849,
      "INTER": 850,
      "cu": 851,
      "TECH": 852,
      "505": 853,
      "510": 854,
      "610": 855,
      "520": 856,
      "515": 857,
      "525": 858,
      "615": 859,
      "mentController": 860,
      "620": 861,
      "540": 862,
      "570": 863,
      "530": 864,
      "QUALI": 865,
      "625": 866,
      "550": 867,
      "535": 868,
      "560": 869,
      "IEL": 870,
      "TELOGIC": 871,
      "QUALITELOGIC": 872,
      "QUALITELOGICIEL": 873,
      "DSI": 874,
      "630": 875,
      "635": 876,
      "565": 877,
      "580": 878,
      "555": 879,
      "670": 880,
      "Do": 881,
      "640": 882,
      "660": 883,
      "545": 884,
      "575": 885,
      "645": 886,
      "585": 887,
      "665": 888,
      "cumentController": 889,
      "DocumentController": 890,
      "ACC": 891,
      "680": 892,
      "675": 893,
      "590": 894,
      "Go": 895,
      "ogle": 896,
      "rome": 897,
      "ts": 898,
      "ĠCh": 899,
      "Google": 900,
      "ĠChrome": 901,
      "INSTALL": 902,
      "695": 903,
      "VEN": 904,
      "595": 905,
      "685": 906,
      "Devi": 907,
      "690": 908,
      "600": 909,
      "Instal": 910,
      "Install": 911,
      "ChantierInstall": 912,
      "ChantierInstallation": 913,
      "605": 914,
      "FOR": 915,
      "710": 916,
      "InterventionController": 917,
      "INTERVEN": 918,
      "INTERVENTION": 919,
      "720": 920,
      "715": 921,
      "725": 922,
      "730": 923,
      "740": 924,
      "735": 925,
      "650": 926,
      "775": 927,
      "745": 928,
      "770": 929,
      "765": 930,
      "780": 931,
      "CH": 932,
      "MonTravail": 933,
      "Tache": 934,
      "montr": 935,
      "MonTravailController": 936,
      "montravail": 937,
      "PL": 938,
      "Exec": 939,
      "760": 940,
      "795": 941,
      "ex": 942,
      "785": 943,
      "VTPREV": 944,
      "790": 945,
      "655": 946,
      "810": 947,
      "825": 948,
      "tac": 949,
      "815": 950,
      "820": 951,
      "700": 952,
      "INSTALLATION": 953,
      "ExecForm": 954,
      "exec": 955,
      "Launch": 956,
      "830": 957,
      "835": 958,
      "840": 959,
      "845": 960,
      "705": 961,
      "DevisForm": 962,
      "860": 963,
      "875": 964,
      "eb": 965,
      "880": 966,
      "865": 967,
      "870": 968,
      "895": 969,
      "Con": 970,
      "PLM": 971,
      "885": 972,
      "890": 973,
      "750": 974,
      "GE": 975,
      "910": 976,
      "925": 977,
      "755": 978,
      "920": 979,
      "935": 980,
      "930": 981,
      "915": 982,
      "940": 983,
      "800": 984,
      "TL": 985,
      "teForm": 986,
      "975": 987,
      "805": 988,
      "945": 989,
      "965": 990,
      "960": 991,
      "970": 992,
      "ECO": 993,
      "OPECO": 994,
      "980": 995,
      "850": 996,
      "ERC": 997,
      "995": 998,
      "985": 999,
      "990": 1000,
      "855": 1001,
      "tactForm": 1002,
      "ContactForm": 1003,
      "tache": 1004,
      "Ca": 1005,
      "USL": 1006,
      "acha": 1007,
      "achats": 1008,
      "905": 1009,
      "TOUS": 1010,
      "ACCTOUS": 1011,
      "900": 1012,
      "TLP": 1013,
      "950": 1014,
      "ar": 1015,
      "SPR": 1016,
      "TSPR": 1017,
      "CONTAC": 1018,
      "CONTACTSPR": 1019,
      "955": 1020,
      "MEM": 1021,
      "MO": 1022,
      "launch": 1023,
      "LaunchHomeView": 1024,
      "GESPRO": 1025,
      "1000": 1026,
      "Cas": 1027,
      "Test": 1028,
      "CasTest": 1029,
      "cast": 1030,
      "castest": 1031,
      "1010": 1032,
      "1005": 1033,
      "ta": 1034,
      "1020": 1035,
      "VC": 1036,
      "1025": 1037,
      "1015": 1038,
      "WF": 1039,
      "VALWF": 1040,
      "Web": 1041,
      "Plan": 1042,
      "1030": 1043,
      "ence": 1044,
      "1035": 1045,
      "1040": 1046,
      "Dat": 1047,
      "eur": 1048,
      "1050": 1049,
      "1045": 1050,
      "1065": 1051,
      "1060": 1052,
      "Sui": 1053,
      "1055": 1054,
      "CM": 1055,
      "1070": 1056,
      "ETRA": 1057,
      "PARAMETRA": 1058,
      "PARAMETRAGE": 1059,
      "mpta": 1060,
      "1075": 1061,
      "acture": 1062,
      "1080": 1063,
      "dit": 1064,
      "1085": 1065,
      "1090": 1066,
      "AP": 1067,
      "APPRO": 1068,
      "1100": 1069,
      "aView": 1070,
      "TacheDat": 1071,
      "aViewVC": 1072,
      "TacheDataViewVC": 1073,
      "1115": 1074,
      "1095": 1075,
      "1105": 1076,
      "1110": 1077,
      "1120": 1078,
      "erveur": 1079,
      "Pre": 1080,
      "1125": 1081,
      "1130": 1082,
      "1135": 1083,
      "rr": 1084,
      "1140": 1085,
      "app": 1086,
      "cat": 1087,
      "mcat": 1088,
      "omcat": 1089,
      "Ġserveur": 1090,
      "lication": 1091,
      "ĠTomcat": 1092,
      "DÃ©ma": 1093,
      "compta": 1094,
      "rrage": 1095,
      "application": 1096,
      "DÃ©marrage": 1097,
      "1145": 1098,
      "1150": 1099,
      "ban": 1100,
      "Kan": 1101,
      "banProjet": 1102,
      "KanbanProjet": 1103,
      "1160": 1104,
      "1155": 1105,
      "Suivi": 1106,
      "GMA": 1107,
      "GMAO": 1108,
      "teWeb": 1109,
      "1185": 1110,
      "1165": 1111,
      "Recherche": 1112,
      "RECH": 1113,
      "ERCHE": 1114,
      "RECHERCHE": 1115,
      "1175": 1116,
      "ilo": 1117,
      "1180": 1118,
      "1190": 1119,
      "1195": 1120,
      "Fe": 1121,
      "sence": 1122,
      "uille": 1123,
      "1200": 1124,
      "Presence": 1125,
      "Feuille": 1126,
      "1170": 1127,
      "edi": 1128,
      "plan": 1129,
      "1215": 1130,
      "FWEB": 1131,
      "REFWEB": 1132,
      "Ed": 1133,
      "1220": 1134,
      "1230": 1135,
      "1205": 1136,
      "FACT": 1137,
      "1240": 1138,
      "FACTUR": 1139,
      "1210": 1140,
      "1225": 1141,
      "FACTURATION": 1142,
      "pe": 1143,
      "1245": 1144,
      "1235": 1145,
      "Info": 1146,
      "1250": 1147,
      "1260": 1148,
      "1255": 1149,
      "1270": 1150,
      "1275": 1151,
      "pilo": 1152,
      "1265": 1153,
      "1285": 1154,
      "PlanExecForm": 1155,
      "planexec": 1156,
      "1280": 1157,
      "1290": 1158,
      "FORM": 1159,
      "1300": 1160,
      "FORMDEV": 1161,
      "ig": 1162,
      "1320": 1163,
      "01": 1164,
      "1295": 1165,
      "1310": 1166,
      "Facture": 1167,
      "1305": 1168,
      "Formation": 1169,
      "1325": 1170,
      "1315": 1171,
      "1335": 1172,
      "TOUR": 1173,
      "1340": 1174,
      "1330": 1175,
      "CasTestExecForm": 1176,
      "castestexec": 1177,
      "APPROWEB": 1178,
      "1345": 1179,
      "1350": 1180,
      "1360": 1181,
      "FR": 1182,
      "BonTravail": 1183,
      "1370": 1184,
      "bt": 1185,
      "1355": 1186,
      "BonTravailForm": 1187,
      "Mod": 1188,
      "Ġl": 1189,
      "1365": 1190,
      "1375": 1191,
      "1385": 1192,
      "1380": 1193,
      "1390": 1194,
      "Copilo": 1195,
      "1400": 1196,
      "PAT": 1197,
      "1395": 1198,
      "PATCH": 1199,
      "1410": 1200,
      "DF": 1201,
      "NDF": 1202,
      "1405": 1203,
      "1415": 1204,
      "1420": 1205,
      "1425": 1206,
      "1430": 1207,
      "1435": 1208,
      "na": 1209,
      "1440": 1210,
      "DBA": 1211,
      "1450": 1212,
      "AU": 1213,
      "1445": 1214,
      "1460": 1215,
      "1465": 1216,
      "LE": 1217,
      "Dev": 1218,
      "1455": 1219,
      "so": 1220,
      "SuiviDev": 1221,
      "SuiviDevs": 1222,
      "Edit": 1223,
      "1475": 1224,
      "MOD": 1225,
      "1500": 1226,
      "1490": 1227,
      "1470": 1228,
      "1510": 1229,
      "1480": 1230,
      "1485": 1231,
      "1495": 1232,
      "Au": 1233,
      "1505": 1234,
      "1515": 1235,
      "1520": 1236,
      "RechercheInfo": 1237,
      "RECHERCHEINFO": 1238,
      "RechercheInfoController": 1239,
      "Mic": 1240,
      "VR": 1241,
      "ft": 1242,
      "ĠEd": 1243,
      "roso": 1244,
      "Microso": 1245,
      "ĠEdge": 1246,
      "Microsoft": 1247,
      "1530": 1248,
      "1540": 1249,
      "yout": 1250,
      "Layout": 1251,
      "CVR": 1252,
      "MAT": 1253,
      "CVRH": 1254,
      "pla": 1255,
      "place": 1256,
      "ues": 1257,
      "1525": 1258,
      "1535": 1259,
      "1545": 1260,
      "PROC": 1261,
      "LAB": 1262,
      "ACCES": 1263,
      "MANDE": 1264,
      "COMMANDE": 1265,
      "1555": 1266,
      "am": 1267,
      "1560": 1268,
      "1590": 1269,
      "1550": 1270,
      "1565": 1271,
      "NAT": 1272,
      "1575": 1273,
      "1570": 1274,
      "Commande": 1275,
      "ele": 1276,
      "1580": 1277,
      "1600": 1278,
      "VteForm": 1279,
      "1585": 1280,
      "1595": 1281,
      "1605": 1282,
      "tor": 1283,
      "Mat": 1284,
      "DEMAT": 1285,
      "1615": 1286,
      "1610": 1287,
      "1620": 1288,
      "1625": 1289,
      "1635": 1290,
      "1660": 1291,
      "1630": 1292,
      "1645": 1293,
      "PersonneForm": 1294,
      "mentForm": 1295,
      "ort": 1296,
      "FORMA": 1297,
      "1640": 1298,
      "1650": 1299,
      "1670": 1300,
      "1655": 1301,
      "1675": 1302,
      "1680": 1303,
      "1705": 1304,
      "rais": 1305,
      "1695": 1306,
      "1725": 1307,
      "1665": 1308,
      "1685": 1309,
      "1690": 1310,
      "1710": 1311,
      "aram": 1312,
      "FORMATION": 1313,
      "1715": 1314,
      "achatsventes": 1315,
      "1720": 1316,
      "1740": 1317,
      "1700": 1318,
      "aut": 1319,
      "alogic": 1320,
      "Analogic": 1321,
      "ANALOGIC": 1322,
      "faut": 1323,
      "DÃ©faut": 1324,
      "1735": 1325,
      "1730": 1326,
      "1755": 1327,
      "nature": 1328,
      "1750": 1329,
      "1800": 1330,
      "1745": 1331,
      "1785": 1332,
      "BA": 1333,
      "1760": 1334,
      "1770": 1335,
      "1765": 1336,
      "27001": 1337,
      "1780": 1338,
      "IONN": 1339,
      "STIONN": 1340,
      "1775": 1341,
      "1790": 1342,
      "STIONNAIRE": 1343,
      "Ach": 1344,
      "BI": 1345,
      "Client": 1346,
      "ESTIONNAIRE": 1347,
      "MBI": 1348,
      "TOR": 1349,
      "tionn": 1350,
      "FICHIERBA": 1351,
      "1805": 1352,
      "QUESTIONNAIRE": 1353,
      "TORMBI": 1354,
      "FICHIERBASE": 1355,
      "Ques": 1356,
      "SOL": 1357,
      "ication": 1358,
      "CONSOL": 1359,
      "Questionn": 1360,
      "ActiTache": 1361,
      "1795": 1362,
      "uni": 1363,
      "Opp": 1364,
      "teWebController": 1365,
      "ortuni": 1366,
      "Opportuni": 1367,
      "OpportuniteWebController": 1368,
      "1810": 1369,
      "fb": 1370,
      "1830": 1371,
      "AchForm": 1372,
      "erne": 1373,
      "1815": 1374,
      "1820": 1375,
      "1825": 1376,
      "1850": 1377,
      "1840": 1378,
      "1835": 1379,
      "EI": 1380,
      "SY": 1381,
      "1860": 1382,
      "SYN": 1383,
      "id": 1384,
      "1845": 1385,
      "1855": 1386,
      "1865": 1387,
      "1870": 1388,
      "1875": 1389,
      "1880": 1390,
      "1905": 1391,
      "ULI": 1392,
      "MOULI": 1393,
      "Param": 1394,
      "MOBITOUR": 1395,
      "1900": 1396,
      "1885": 1397,
      "1890": 1398,
      "1895": 1399,
      "MOBICRM": 1400,
      "LERC": 1401,
      "Ġ-": 1402,
      "LERCNAT": 1403,
      "1910": 1404,
      "1920": 1405,
      "1940": 1406,
      "1915": 1407,
      "1930": 1408,
      "1935": 1409,
      "1950": 1410,
      "CommandeVteForm": 1411,
      "1925": 1412,
      "1945": 1413,
      "ification": 1414,
      "PROD": 1415,
      "ong": 1416,
      "1955": 1417,
      "Ġlong": 1418,
      "SPATCH": 1419,
      "web": 1420,
      "DISPATCH": 1421,
      "CT": 1422,
      "CTPROD": 1423,
      "1995": 1424,
      "are": 1425,
      "1970": 1426,
      "1980": 1427,
      "Sh": 1428,
      "dController": 1429,
      "teWebSh": 1430,
      "CopiloteWebSh": 1431,
      "aredController": 1432,
      "CopiloteWebSharedController": 1433,
      "Ġinfo": 1434,
      "ntre": 1435,
      "centre": 1436,
      "1960": 1437,
      "LaunchForm": 1438,
      "Ġinfocentre": 1439,
      "1965": 1440,
      "LAIRE": 1441,
      "MULAIRE": 1442,
      "FORMULAIRE": 1443,
      "1975": 1444,
      "LayoutController": 1445,
      "OLOGIC": 1446,
      "INFOLOGIC": 1447,
      "1985": 1448,
      "roi": 1449,
      "1990": 1450,
      "FicheClient": 1451,
      "FicheClientController": 1452,
      "2005": 1453,
      "2000": 1454,
      "2030": 1455,
      "2050": 1456,
      "CDE": 1457,
      "2015": 1458,
      "qui": 1459,
      "2010": 1460,
      "2020": 1461,
      "2045": 1462,
      "quipe": 1463,
      "2040": 1464,
      "2065": 1465,
      "alid": 1466,
      "2080": 1467,
      "OU": 1468,
      "FormController": 1469,
      "2025": 1470,
      "2035": 1471,
      "2055": 1472,
      "editor": 1473,
      "2070": 1474,
      "2090": 1475,
      "2075": 1476,
      "oi": 1477,
      "2085": 1478,
      "AIS": 1479,
      "2060": 1480,
      "roits": 1481,
      "Frais": 1482,
      "2095": 1483,
      "NOTEFR": 1484,
      "NOTEFRAIS": 1485,
      "Sy": 1486,
      "Syn": 1487,
      "2100": 1488,
      "DEMO": 1489,
      "2110": 1490,
      "2165": 1491,
      "LS": 1492,
      "TILS": 1493,
      "OUTILS": 1494,
      "OUTILSPARAMETRAGE": 1495,
      "2125": 1496,
      "2135": 1497,
      "2105": 1498,
      "AD": 1499,
      "pon": 1500,
      "Repon": 1501,
      "seQuestionn": 1502,
      "MatController": 1503,
      "SYNMAT": 1504,
      "SynMatController": 1505,
      "ADM": 1506,
      "ReponseQuestionn": 1507,
      "2150": 1508,
      "2115": 1509,
      "2120": 1510,
      "sf": 1511,
      "Prog": 1512,
      "2130": 1513,
      "2145": 1514,
      "2160": 1515,
      "Deplace": 1516,
      "dition": 1517,
      "AUDI": 1518,
      "2155": 1519,
      "AGE": 1520,
      "droits": 1521,
      "2140": 1522,
      "NE": 1523,
      "FormationForm": 1524,
      "FORMATIONS": 1525,
      "ProgFormationForm": 1526,
      "2190": 1527,
      "2180": 1528,
      "2170": 1529,
      "2175": 1530,
      "2185": 1531,
      "Sig": 1532,
      "FactureAchForm": 1533,
      "Signature": 1534,
      "2195": 1535,
      "MODOP": 1536,
      "BK": 1537,
      "2200": 1538,
      "EditFacture": 1539,
      "EditFactureForm": 1540,
      "2205": 1541,
      "2210": 1542,
      "2215": 1543,
      "INFOC": 1544,
      "ULE": 1545,
      "Module": 1546,
      "MODULE": 1547,
      "ParamModule": 1548,
      "Ã©dition": 1549,
      "2230": 1550,
      "2220": 1551,
      "2235": 1552,
      "2225": 1553,
      "2240": 1554,
      "2250": 1555,
      "2245": 1556,
      "2255": 1557,
      "EWEB": 1558,
      "Si": 1559,
      "2270": 1560,
      "2295": 1561,
      "CONSOLEWEB": 1562,
      "Qu": 1563,
      "2275": 1564,
      "Qual": 1565,
      "Valid": 1566,
      "2265": 1567,
      "CopiloteForm": 1568,
      "Qualification": 1569,
      "2280": 1570,
      "2285": 1571,
      "Devis": 1572,
      "2260": 1573,
      "2290": 1574,
      "INFOCOMPTE": 1575,
      "2300": 1576,
      "055": 1577,
      "2315": 1578,
      "2305": 1579,
      "2350": 1580,
      "Pr": 1581,
      "FraisForm": 1582,
      "LN": 1583,
      "Stac": 1584,
      "Table": 1585,
      "ULN": 1586,
      "VULN": 1587,
      "eCopiloteForm": 1588,
      "reeCopiloteForm": 1589,
      "EntreeCopiloteForm": 1590,
      "2320": 1591,
      "2325": 1592,
      "Demandes": 1593,
      "PATCHVULN": 1594,
      "QualificationEntreeCopiloteForm": 1595,
      "EditDevis": 1596,
      "2335": 1597,
      "2340": 1598,
      "rte": 1599,
      "ACK": 1600,
      "2310": 1601,
      "2355": 1602,
      "NotesFraisForm": 1603,
      "INT": 1604,
      "2330": 1605,
      "2345": 1606,
      "IE": 1607,
      "Interne": 1608,
      "Jour": 1609,
      "AS": 1610,
      "Ale": 1611,
      "2375": 1612,
      "Alerte": 1613,
      "STACK": 1614,
      "2360": 1615,
      "RechercheStac": 1616,
      "RECHERCHESTACK": 1617,
      "RechercheStackController": 1618,
      "ĠINTER": 1619,
      "2380": 1620,
      "seur": 1621,
      "ĠINTERNE": 1622,
      "dialog": 1623,
      "up": 1624,
      "2370": 1625,
      "2430": 1626,
      "2365": 1627,
      "2390": 1628,
      "2425": 1629,
      "deplace": 1630,
      "ActiTacheController": 1631,
      "deplacement": 1632,
      ".$,": 1633,
      "AV": 1634,
      "2515": 1635,
      "2440": 1636,
      "2385": 1637,
      "AnalogicTable": 1638,
      "DeplacementForm": 1639,
      "AnalogicTableFormController": 1640,
      "010": 1641,
      "ML": 1642,
      "2415": 1643,
      "2420": 1644,
      "AppelJour": 1645,
      "2405": 1646,
      "Mon": 1647,
      "PON": 1648,
      "2410": 1649,
      "MP": 1650,
      "REPON": 1651,
      "2400": 1652,
      "2455": 1653,
      "ReponseQuestionnaireController": 1654,
      "REPONSE": 1655,
      "2435": 1656,
      "2470": 1657,
      "2465": 1658,
      "2485": 1659,
      "2395": 1660,
      "Lo": 1661,
      "TMAT": 1662,
      "2475": 1663,
      "2495": 1664,
      "ARTMAT": 1665,
      "2450": 1666,
      "ParamModuleController": 1667,
      "Log": 1668,
      "AB": 1669,
      "TAB": 1670,
      "2510": 1671,
      "2460": 1672,
      "2490": 1673,
      "Profi": 1674,
      "TABLE": 1675,
      "lController": 1676,
      "mon": 1677,
      "2445": 1678,
      "2505": 1679,
      "MonProfi": 1680,
      "MonProfilController": 1681,
      "rt": 1682,
      "df": 1683,
      "2560": 1684,
      "2480": 1685,
      "Audit": 1686,
      "2520": 1687,
      "2530": 1688,
      "2570": 1689,
      "Dialog": 1690,
      "2535": 1691,
      "2500": 1692,
      "2565": 1693,
      "2580": 1694,
      "commande": 1695,
      "ACAPPRO": 1696,
      "2525": 1697,
      "2540": 1698,
      "2555": 1699,
      "edfb": 1700,
      "2630": 1701,
      "Edfb": 1702,
      "EdfbForm": 1703,
      "2585": 1704,
      "2575": 1705,
      "2595": 1706,
      "2600": 1707,
      "loc": 1708,
      "aireForm": 1709,
      "2590": 1710,
      "HEB": 1711,
      "CRES": 1712,
      "2545": 1713,
      "2550": 1714,
      "FicheRe": 1715,
      "CRESOC": 1716,
      "bloc": 1717,
      "2615": 1718,
      "blocage": 1719,
      "BD": 1720,
      "Prod": 1721,
      "2605": 1722,
      "2610": 1723,
      "actures": 1724,
      "sfactures": 1725,
      "commandesfactures": 1726,
      "nse": 1727,
      "2620": 1728,
      "igne": 1729,
      "nseigne": 1730,
      "Ob": 1731,
      "iv": 1732,
      "lig": 1733,
      "nes": 1734,
      "pre": 1735,
      "reDialog": 1736,
      "atoi": 1737,
      "2625": 1738,
      "2635": 1739,
      "2670": 1740,
      "2695": 1741,
      "ActiTacheOb": 1742,
      "ligatoi": 1743,
      "ActiTacheObligatoi": 1744,
      "ActiTacheObligatoireDialog": 1745,
      "Eti": 1746,
      "tteForm": 1747,
      "mentsForm": 1748,
      "quetteForm": 1749,
      "ationFicheRe": 1750,
      "FichierEti": 1751,
      "2655": 1752,
      "2640": 1753,
      "ValidationFicheRe": 1754,
      "nseignementsForm": 1755,
      "FichierEtiquetteForm": 1756,
      "ValidationFicheRenseignementsForm": 1757,
      "ANA": 1758,
      "2650": 1759,
      "2685": 1760,
      "2690": 1761,
      "ĠDÃ©faut": 1762,
      "activites": 1763,
      "2645": 1764,
      "2675": 1765,
      "RES": 1766,
      "ĠPerson": 1767,
      "2660": 1768,
      "ĠPersonnes": 1769,
      "2665": 1770,
      "Fac": 1771,
      "ROL": 1772,
      "dsi": 1773,
      "2700": 1774,
      "2680": 1775,
      "SuiviProd": 1776,
      "ROLL": 1777,
      "SuiviProdLog": 1778,
      "Mes": 1779,
      "2705": 1780,
      "DAGE": 1781,
      "modele": 1782,
      "VIDAGE": 1783,
      "2710": 1784,
      "dev": 1785,
      "Viewer": 1786,
      "COVAL": 1787,
      "2715": 1788,
      "2735": 1789,
      "Art": 1790,
      "DO": 1791,
      "Serv": 1792,
      "INDI": 1793,
      "CRMForm": 1794,
      "002": 1795,
      "AccueilCRMForm": 1796,
      "ISO": 1797,
      "2720": 1798,
      "LayoutNestedWindow": 1799,
      "nis": 1800,
      "ournis": 1801,
      "HEBDO": 1802,
      "ournisseur": 1803,
      "Cde": 1804,
      "ag": 1805,
      "mpag": 1806,
      "FicheArt": 1807,
      "MatForm": 1808,
      "RESP": 1809,
      "mpagne": 1810,
      "FicheArtMatForm": 1811,
      "REC": 1812,
      "Audi": 1813,
      "sage": 1814,
      "2725": 1815,
      "Message": 1816,
      "Equipe": 1817,
      "2820": 1818,
      "CasTestForm": 1819,
      "Fournisseur": 1820,
      "Vis": 1821,
      "cde": 1822,
      "Visu": 1823,
      ")>": 1824,
      "2730": 1825,
      "2745": 1826,
      "tNestedWindow": 1827,
      "InputNestedWindow": 1828,
      "DOCA": 1829,
      "2755": 1830,
      "2740": 1831,
      "2760": 1832,
      "2770": 1833,
      "CdeInputNestedWindow": 1834,
      "ONS": 1835,
      "DEMONS": 1836,
      "2750": 1837,
      "2785": 1838,
      "Modele": 1839,
      "cri": 1840,
      "po": 1841,
      "ss": 1842,
      "FACTI": 1843,
      "SAT": 1844,
      "ISFACTI": 1845,
      "2765": 1846,
      "2775": 1847,
      "2780": 1848,
      "SATISFACTI": 1849,
      "SATISFACTION": 1850,
      "demande": 1851,
      "DemandeController": 1852,
      "PV": 1853,
      "2805": 1854,
      "2790": 1855,
      "2845": 1856,
      "EquipementForm": 1857,
      "PVREC": 1858,
      "AGES": 1859,
      "SAGES": 1860,
      "lForm": 1861,
      "MESSAGES": 1862,
      "Planif": 1863,
      "QL": 1864,
      "Sq": 1865,
      "ESQL": 1866,
      "2830": 1867,
      "2835": 1868,
      "2840": 1869,
      "CONSOLESQL": 1870,
      "SqlForm": 1871,
      "equipe": 1872,
      "2850": 1873,
      "2795": 1874,
      "2815": 1875,
      "equipement": 1876,
      "sig": 1877,
      "2800": 1878,
      "2810": 1879,
      "2865": 1880,
      "interne": 1881,
      "TableauBordFBController": 1882,
      "2855": 1883,
      "2825": 1884,
      "SignatureInterventionController": 1885,
      "signature": 1886,
      "030": 1887,
      "GBD": 1888,
      "MS": 1889,
      "ere": 1890,
      "Formulaire": 1891,
      "MSGBD": 1892,
      "XPL": 1893,
      "2860": 1894,
      "CES": 1895,
      "Lic": 1896,
      "ICEN": 1897,
      "2870": 1898,
      "TLICEN": 1899,
      "encesForm": 1900,
      "AUDITLICEN": 1901,
      "AuditLic": 1902,
      "AUDITLICENCES": 1903,
      "AuditLicencesForm": 1904,
      "RIER": 1905,
      "sc": 1906,
      "FormulaireForm": 1907,
      "Bar": 1908,
      "Sele": 1909,
      "ctor": 1910,
      "eIntervention": 1911,
      "eintervention": 1912,
      "gation": 1913,
      "pt": 1914,
      "modeintervention": 1915,
      "vigation": 1916,
      "WindowSele": 1917,
      "TacheDataViewVCHomeView": 1918,
      "ModeIntervention": 1919,
      "navigation": 1920,
      "ctorController": 1921,
      "WindowSelectorController": 1922,
      "ModeInterventionForm": 1923,
      "navigationBar": 1924,
      "2900": 1925,
      "2885": 1926,
      "2875": 1927,
      "2895": 1928,
      "raison": 1929,
      "ivraison": 1930,
      "2905": 1931,
      "2880": 1932,
      "2915": 1933,
      "DEFAU": 1934,
      "2890": 1935,
      "2910": 1936,
      "2945": 1937,
      "2985": 1938,
      "21": 1939,
      "FEV": 1940,
      "2021": 1941,
      "2930": 1942,
      "FEVRIER": 1943,
      "2935": 1944,
      "Rev": 1945,
      "2925": 1946,
      "erInfo": 1947,
      "2950": 1948,
      "2955": 1949,
      "2920": 1950,
      "2940": 1951,
      "2970": 1952,
      "InterventionNestedWindow": 1953,
      "ServerInfo": 1954,
      "VisuMessage": 1955,
      "ServerInfosController": 1956,
      "2965": 1957,
      "2975": 1958,
      "AUDIT": 1959,
      "etu": 1960,
      "3030": 1961,
      "etude": 1962,
      "KS": 1963,
      "STOC": 1964,
      "3025": 1965,
      "2960": 1966,
      "STOCKS": 1967,
      "PARC": 1968,
      "FicheFournisseur": 1969,
      "action": 1970,
      "kup": 1971,
      "ackup": 1972,
      "3005": 1973,
      "2980": 1974,
      "2990": 1975,
      "AnalyseTache": 1976,
      "AnalyseTachesController": 1977,
      "tions": 1978,
      "3000": 1979,
      "editions": 1980,
      "MLES": 1981,
      "3015": 1982,
      "3020": 1983,
      "2995": 1984,
      "MLESL": 1985,
      "CER": 1986,
      "Cere": 1987,
      "GNAT": 1988,
      "sui": 1989,
      "ieSignature": 1990,
      "3010": 1991,
      "3060": 1992,
      "URE": 1993,
      "ONIE": 1994,
      "EMONIE": 1995,
      "SIGNAT": 1996,
      "monieSignature": 1997,
      "CEREMONIE": 1998,
      "CeremonieSignature": 1999,
      "SIGNATURE": 2000,
      "CeremonieSignatureForm": 2001,
      "par": 2002,
      "cep": 2003,
      "3035": 2004,
      "3040": 2005,
      "CommandeAchForm": 2006,
      "Tec": 2007,
      "Recep": 2008,
      "3045": 2009,
      "3075": 2010,
      "3090": 2011,
      "ChantierTec": 2012,
      "3100": 2013,
      "3080": 2014,
      "iso": 2015,
      "3105": 2016,
      "Reedi": 2017,
      "3095": 2018,
      "3055": 2019,
      "3050": 2020,
      "Reedit": 2021,
      "3070": 2022,
      "3065": 2023,
      "3085": 2024,
      "000": 2025,
      "3130": 2026,
      "040": 2027,
      "3135": 2028,
      "MCO": 2029,
      "QuestionnaireForm": 2030,
      "Reception": 2031,
      "MCOI": 2032,
      "3115": 2033,
      "CasTestSui": 2034,
      "castestsui": 2035,
      "CasTestSuiteForm": 2036,
      "castestsuite": 2037,
      "3110": 2038,
      "3155": 2039,
      "Ma": 2040,
      "Ty": 2041,
      "rou": 2042,
      "peti": 2043,
      "3165": 2044,
      "SiteForm": 2045,
      "3125": 2046,
      "3145": 2047,
      "Rele": 2048,
      "IND": 2049,
      "3140": 2050,
      "Lie": 2051,
      "List": 2052,
      "tage": 2053,
      "ĠIE": 2054,
      "menu": 2055,
      "reen": 2056,
      "HomeViewController": 2057,
      "homesc": 2058,
      "Site": 2059,
      "Lieu": 2060,
      "homescreen": 2061,
      "3120": 2062,
      "3160": 2063,
      "3175": 2064,
      "3180": 2065,
      "3150": 2066,
      "3210": 2067,
      "3170": 2068,
      "3190": 2069,
      "FO": 2070,
      "Se": 2071,
      "sition": 2072,
      "AUTO": 2073,
      "position": 2074,
      "paration": 2075,
      "FOUR": 2076,
      "3185": 2077,
      "3230": 2078,
      "3215": 2079,
      "3220": 2080,
      "FactureVteForm": 2081,
      "Pdf": 2082,
      "cture": 2083,
      "pdf": 2084,
      "viewer": 2085,
      "ViewerForm": 2086,
      "Relecture": 2087,
      "PdfViewerForm": 2088,
      "pdfviewer": 2089,
      "DEFAUT": 2090,
      "3245": 2091,
      "3250": 2092,
      "3345": 2093,
      "Cpt": 2094,
      "3195": 2095,
      "3200": 2096,
      "3235": 2097,
      "3240": 2098,
      "Liste": 2099,
      "3225": 2100,
      "3205": 2101,
      "Let": 2102,
      "let": 2103,
      ".$": 2104,
      "3265": 2105,
      "3280": 2106,
      "3305": 2107,
      "3375": 2108,
      "Audits": 2109,
      "Revues": 2110,
      "3270": 2111,
      "3260": 2112,
      "3275": 2113,
      "3340": 2114,
      "3360": 2115,
      "ervi": 2116,
      "AnalogicListe": 2117,
      "oir": 2118,
      "upervi": 2119,
      "AnalogicListeFormController": 2120,
      "3255": 2121,
      "3300": 2122,
      "3320": 2123,
      "3330": 2124,
      "3350": 2125,
      "3285": 2126,
      "3295": 2127,
      "3335": 2128,
      "3315": 2129,
      "3325": 2130,
      "3390": 2131,
      "NCE": 2132,
      "3365": 2133,
      "3380": 2134,
      "INS": 2135,
      "3355": 2136,
      "3290": 2137,
      "3310": 2138,
      "3370": 2139,
      "3415": 2140,
      "NOR": 2141,
      "Campagne": 2142,
      "crit": 2143,
      "PlanifController": 2144,
      "NORMES": 2145,
      "CampagneQuestionnaireForm": 2146,
      "ca": 2147,
      "CRO": 2148,
      "trageCpt": 2149,
      "3400": 2150,
      "SYNCRO": 2151,
      "COVALInterne": 2152,
      "LettrageCpt": 2153,
      "lettrage": 2154,
      "3385": 2155,
      "3410": 2156,
      "3445": 2157,
      "3425": 2158,
      "3430": 2159,
      "4180": 2160,
      "NIS": 2161,
      "ration": 2162,
      "audit": 2163,
      "SEUR": 2164,
      "3405": 2165,
      "3450": 2166,
      "FicheFournisseurController": 2167,
      "Type": 2168,
      "FOURNIS": 2169,
      "FOURNISSEUR": 2170,
      "vue": 2171,
      "revue": 2172,
      "saisiecrit": 2173,
      "3395": 2174,
      "3435": 2175,
      "3465": 2176,
      "3490": 2177,
      "Demon": 2178,
      "CDEAC": 2179,
      "3420": 2180,
      "3440": 2181,
      "3460": 2182,
      "3475": 2183,
      "3495": 2184,
      "Spe": 2185,
      "Recu": 2186,
      "3455": 2187,
      "VisuMessageRecu": 2188,
      "VisuMessageRecuForm": 2189,
      "Ad": 2190,
      "ace": 2191,
      "aForm": 2192,
      "turation": 2193,
      "3520": 2194,
      "3540": 2195,
      "Trace": 2196,
      "DemonPlanifController": 2197,
      "3485": 2198,
      "EX": 2199,
      "tre": 2200,
      "site": 2201,
      "ClientForm": 2202,
      "3535": 2203,
      "3480": 2204,
      "lance": 2205,
      "min": 2206,
      "Relance": 2207,
      "3510": 2208,
      "3545": 2209,
      "3500": 2210,
      "3550": 2211,
      "LANCE": 2212,
      "RELANCE": 2213,
      "ReponseQuestionnaireForm": 2214,
      "campagne": 2215,
      "Admin": 2216,
      "RelanceClientForm": 2217,
      "AdminReponseQuestionnaireForm": 2218,
      "3470": 2219,
      "HAT": 2220,
      "xForm": 2221,
      "ACHAT": 2222,
      "3515": 2223,
      "3525": 2224,
      "3565": 2225,
      "3590": 2226,
      "3505": 2227,
      "VENTES": 2228,
      "AuxForm": 2229,
      "LettrageCptAuxForm": 2230,
      "EXPO": 2231,
      "FON": 2232,
      "Mail": 2233,
      "Sp": 2234,
      "rint": 2235,
      "art": 2236,
      "FONC": 2237,
      "Sprint": 2238,
      "3610": 2239,
      "3615": 2240,
      "3530": 2241,
      "3575": 2242,
      "3585": 2243,
      "Mails": 2244,
      "3620": 2245,
      "HA": 2246,
      "SM": 2247,
      "tHA": 2248,
      "MAIL": 2249,
      "3595": 2250,
      "3555": 2251,
      "PLAN": 2252,
      "FactHA": 2253,
      "3635": 2254,
      "3640": 2255,
      "supervi": 2256,
      "3560": 2257,
      "3570": 2258,
      "3605": 2259,
      "MailsViewer": 2260,
      "3645": 2261,
      "3735": 2262,
      "utionController": 2263,
      "ateur": 2264,
      "TRACEAUDIT": 2265,
      "3600": 2266,
      "ExecutionController": 2267,
      "AuditForm": 2268,
      "TraceAuditForm": 2269,
      "3660": 2270,
      "3675": 2271,
      "Livraison": 2272,
      "til": 2273,
      "STAGE": 2274,
      "3580": 2275,
      "Compta": 2276,
      "3650": 2277,
      "3655": 2278,
      "Conf": 2279,
      "LivraisonForm": 2280,
      "3670": 2281,
      "3665": 2282,
      "3690": 2283,
      "3745": 2284,
      "3795": 2285,
      "3810": 2286,
      "3800": 2287,
      "3805": 2288,
      "3630": 2289,
      "3695": 2290,
      "3715": 2291,
      "3725": 2292,
      "3730": 2293,
      "3740": 2294,
      "3765": 2295,
      "3825": 2296,
      "3835": 2297,
      "Ass": 2298,
      "Ecri": 2299,
      "MSE": 2300,
      "3700": 2301,
      "3850": 2302,
      "FactForm": 2303,
      "EcritForm": 2304,
      "3625": 2305,
      "3680": 2306,
      "3685": 2307,
      "3710": 2308,
      "3720": 2309,
      "3775": 2310,
      "3845": 2311,
      "Pri": 2312,
      "Sais": 2313,
      "iEcritForm": 2314,
      "livraison": 2315,
      "xDeplace": 2316,
      "SaisiePri": 2317,
      "travail": 2318,
      "fichiertravail": 2319,
      "AnalogicController": 2320,
      "ReeditFactForm": 2321,
      "SaisiEcritForm": 2322,
      "xDeplacementController": 2323,
      "SaisiePrixDeplacementController": 2324,
      "3780": 2325,
      "3760": 2326,
      "3820": 2327,
      "STION": 2328,
      "3705": 2329,
      "GESTION": 2330,
      "3770": 2331,
      "3785": 2332,
      "3790": 2333,
      "3830": 2334,
      "3860": 2335,
      "valid": 2336,
      "NoteFrais": 2337,
      "CLIENTS": 2338,
      "3750": 2339,
      "3755": 2340,
      "3855": 2341,
      "ValidCompta": 2342,
      "tilis": 2343,
      "validcompta": 2344,
      "NoteFraisValidCompta": 2345,
      "NoteFraisValidComptaForm": 2346,
      "3840": 2347,
      "3880": 2348,
      "3870": 2349,
      "Jav": 2350,
      "3875": 2351,
      "Backup": 2352,
      "Grou": 2353,
      "Ri": 2354,
      "Tex": 2355,
      "backup": 2356,
      "param": 2357,
      "tBackup": 2358,
      "wid": 2359,
      "xt": 2360,
      "chte": 2361,
      "chTex": 2362,
      "gets": 2363,
      "richte": 2364,
      "Groupe": 2365,
      "RichTex": 2366,
      "tBackupController": 2367,
      "widgets": 2368,
      "richtext": 2369,
      "RichTextBackupController": 2370,
      "3815": 2371,
      "3865": 2372,
      "3920": 2373,
      "3940": 2374,
      "3985": 2375,
      "POL": 2376,
      "4035": 2377,
      "EMI": 2378,
      "3900": 2379,
      "Autre": 2380,
      "3885": 2381,
      "3930": 2382,
      "3975": 2383,
      "3960": 2384,
      "CLE": 2385,
      "pro": 2386,
      "rif": 2387,
      "4015": 2388,
      "4040": 2389,
      "TICLE": 2390,
      "ARTICLE": 2391,
      "3895": 2392,
      "3890": 2393,
      "3945": 2394,
      "3970": 2395,
      "3995": 2396,
      "3990": 2397,
      "etForm": 2398,
      "4010": 2399,
      "ProjetForm": 2400,
      "3905": 2401,
      "3950": 2402,
      "3910": 2403,
      "3925": 2404,
      "3935": 2405,
      "3915": 2406,
      "3965": 2407,
      "Ab": 2408,
      "CUR": 2409,
      "ITE": 2410,
      "Utilis": 2411,
      "cr": 2412,
      "4020": 2413,
      "4070": 2414,
      "Incr": 2415,
      "SECUR": 2416,
      "3955": 2417,
      "tarif": 2418,
      "AuditIncr": 2419,
      "SECURITE": 2420,
      "Fam": 2421,
      "Tar": 2422,
      "str": 2423,
      "act": 2424,
      "INCR": 2425,
      "4025": 2426,
      "4030": 2427,
      "4045": 2428,
      "4075": 2429,
      "4090": 2430,
      "4000": 2431,
      "DemandeDeplacementForm": 2432,
      "Abstr": 2433,
      "Abstract": 2434,
      "3980": 2435,
      "4120": 2436,
      "4130": 2437,
      "4140": 2438,
      "4145": 2439,
      "4205": 2440,
      "Po": 2441,
      "4060": 2442,
      "4055": 2443,
      "4050": 2444,
      "4005": 2445,
      "Planification": 2446,
      "tarification": 2447,
      "44": 2448,
      "4160": 2449,
      "4185": 2450,
      "4190": 2451,
      "AQ": 2452,
      "FAQ": 2453,
      "PER": 2454,
      "dat": 2455,
      "mat": 2456,
      "tive": 2457,
      "repeti": 2458,
      "Repeti": 2459,
      "4065": 2460,
      "ficheart": 2461,
      "PlanifRepeti": 2462,
      "ACHATS": 2463,
      "tiveForm": 2464,
      "repetition": 2465,
      "ficheartmat": 2466,
      "PlanifRepetitiveForm": 2467,
      "4100": 2468,
      "4125": 2469,
      "4135": 2470,
      "4170": 2471,
      "4150": 2472,
      "4195": 2473,
      "4200": 2474,
      "4155": 2475,
      "4210": 2476,
      "PIL": 2477,
      "COPIL": 2478,
      "4080": 2479,
      "Comp": 2480,
      "SEL": 2481,
      "4105": 2482,
      "4165": 2483,
      "4175": 2484,
      "4110": 2485,
      "4225": 2486,
      "4215": 2487,
      "4220": 2488,
      "BO": 2489,
      "CBO": 2490,
      "Pilo": 2491,
      "eg": 2492,
      "tar": 2493,
      "vForm": 2494,
      "SaisieTar": 2495,
      "4085": 2496,
      "4095": 2497,
      "pilotage": 2498,
      "TOURNE": 2499,
      "tageProjetForm": 2500,
      "Post": 2501,
      "PilotageProjetForm": 2502,
      "TOURNEE": 2503,
      "4115": 2504,
      "4230": 2505,
      "4245": 2506,
      "stpre": 2507,
      "esForm": 2508,
      "Proposition": 2509,
      "DatesForm": 2510,
      "Preparation": 2511,
      "postpre": 2512,
      "positiondat": 2513,
      "superviseur": 2514,
      "ateurForm": 2515,
      "propositiondat": 2516,
      "UtilisateurForm": 2517,
      "PostPreparation": 2518,
      "PropositionDatesForm": 2519,
      "postpreparation": 2520,
      "propositiondates": 2521,
      "PostPreparationVC": 2522,
      "4240": 2523,
      "FAM": 2524,
      "OSI": 2525,
      "WHE": 2526,
      "ZV": 2527,
      "ZvForm": 2528,
      "ame": 2529,
      "osite": 2530,
      "INC": 2531,
      "COMPOSI": 2532,
      "Dem": 2533,
      "CONFWHE": 2534,
      "ParamModuleComp": 2535,
      "FamZvForm": 2536,
      "FAMZV": 2537,
      "ositeFBController": 2538,
      "COMPOSITE": 2539,
      "ParamModuleCompositeFBController": 2540,
      "4270": 2541,
      "4235": 2542,
      "4265": 2543,
      "4250": 2544,
      "4260": 2545,
      "Av": 2546,
      "Fon": 2547,
      "Neg": 2548,
      "oce": 2549,
      "FicheNeg": 2550,
      "DEMACH": 2551,
      "oirForm": 2552,
      "AvoirForm": 2553,
      "Fonction": 2554,
      "oceForm": 2555,
      "FicheNegoceForm": 2556,
      "4280": 2557,
      "4290": 2558,
      "Bon": 2559,
      "Bran": 2560,
      "En": 2561,
      "Liv": 2562,
      "cheForm": 2563,
      "AnalogicNestedWindow": 2564,
      "BonLiv": 2565,
      "BrancheForm": 2566,
      "4255": 2567,
      "4325": 2568,
      "FIL": 2569,
      "fac": 2570,
      "ice": 2571,
      "orti": 2572,
      "PROFIL": 2573,
      "avoir": 2574,
      "ReeditBonLiv": 2575,
      "Maj": 2576,
      "facturation": 2577,
      "PROFILS": 2578,
      "4275": 2579,
      "4295": 2580,
      "4340": 2581,
      "gSpe": 2582,
      "aux": 2583,
      "PrgSpe": 2584,
      "ReeditBonLivForm": 2585,
      "34": 2586,
      "4285": 2587,
      "4300": 2588,
      "4305": 2589,
      "4330": 2590,
      "4385": 2591,
      "634": 2592,
      "VTV": 2593,
      "Assorti": 2594,
      "AssortimentForm": 2595,
      "4310": 2596,
      "4375": 2597,
      "4395": 2598,
      "4425": 2599,
      "4440": 2600,
      "4435": 2601,
      "IU": 2602,
      "LER": 2603,
      "NAC": 2604,
      "TNAC": 2605,
      "Vi": 2606,
      "mport": 2607,
      "CPT": 2608,
      "ENIU": 2609,
      "MODE": 2610,
      "SELENIU": 2611,
      "LERTNAC": 2612,
      "SELENIUM": 2613,
      "4315": 2614,
      "4320": 2615,
      "4380": 2616,
      "4355": 2617,
      "4410": 2618,
      "4415": 2619,
      "4420": 2620,
      "4460": 2621,
      "4430": 2622,
      "4475": 2623,
      "4660": 2624,
      "PBD": 2625,
      "chInfo": 2626,
      "RechInfo": 2627,
      "4560": 2628,
      "CUPBD": 2629,
      "RECUPBD": 2630,
      "planification": 2631,
      "Modif": 2632,
      "Sear": 2633,
      "PlanificationController": 2634,
      "RechInfoModele": 2635,
      "RECUPBDD": 2636,
      "4335": 2637,
      "4345": 2638,
      "4360": 2639,
      "4365": 2640,
      "4370": 2641,
      "4350": 2642,
      "4400": 2643,
      "4445": 2644,
      "4480": 2645,
      "4835": 2646,
      "Gest": 2647,
      "Par": 2648,
      "bti": 2649,
      "lif": 2650,
      "fichec": 2651,
      "DEFbti": 2652,
      "4700": 2653,
      "4850": 2654,
      "FicheFournisseurForm": 2655,
      "lifour": 2656,
      "ficheclifour": 2657,
      "4390": 2658,
      "4490": 2659,
      "4730": 2660,
      "4795": 2661,
      "4910": 2662,
      "4990": 2663,
      "CVA": 2664,
      "con": 2665,
      "oSprint": 2666,
      "ctionAn": 2667,
      "troSprint": 2668,
      "RetroSprint": 2669,
      "4535": 2670,
      "4540": 2671,
      "4580": 2672,
      "mass": 2673,
      "4450": 2674,
      "4405": 2675,
      "4605": 2676,
      "4805": 2677,
      "4505": 2678,
      "Service": 2679,
      "ssModif": 2680,
      "MassModif": 2681,
      "SectionAn": 2682,
      "params": 2683,
      "PERI": 2684,
      "SectionAnaForm": 2685,
      "4470": 2686,
      "4620": 2687,
      "4725": 2688,
      "4785": 2689,
      "4825": 2690,
      "4840": 2691,
      "4935": 2692,
      "4965": 2693,
      "SP": 2694,
      "ter": 2695,
      "4510": 2696,
      "4515": 2697,
      "4545": 2698,
      "4570": 2699,
      "4585": 2700,
      "tiersc": 2701,
      "POST": 2702,
      "4455": 2703,
      "Conc": 2704,
      "ptaux": 2705,
      "ameter": 2706,
      "Parameter": 2707,
      "MassModifHomeView": 2708,
      "tierscptaux": 2709,
      "4465": 2710,
      "4485": 2711,
      "4495": 2712,
      "4630": 2713,
      "4670": 2714,
      "4680": 2715,
      "4675": 2716,
      "4690": 2717,
      "4770": 2718,
      "4780": 2719,
      "4815": 2720,
      "4820": 2721,
      "4860": 2722,
      "4890": 2723,
      "4920": 2724,
      "4945": 2725,
      "4960": 2726,
      "5100": 2727,
      "tGest": 2728,
      "ueSprint": 2729,
      "4525": 2730,
      "4530": 2731,
      "4565": 2732,
      "4500": 2733,
      "4650": 2734,
      "4755": 2735,
      "4950": 2736,
      "5000": 2737,
      "SitGest": 2738,
      "RevueSprint": 2739,
      "MajFactureAchForm": 2740,
      "SitGestForm": 2741,
      "4615": 2742,
      "4625": 2743,
      "4640": 2744,
      "4645": 2745,
      "4665": 2746,
      "4695": 2747,
      "4685": 2748,
      "4715": 2749,
      "4735": 2750,
      "4775": 2751,
      "4745": 2752,
      "4765": 2753,
      "4760": 2754,
      "4790": 2755,
      "4810": 2756,
      "4875": 2757,
      "4880": 2758,
      "4870": 2759,
      "4925": 2760,
      "4930": 2761,
      "4975": 2762,
      "4995": 2763,
      "5205": 2764,
      "GR": 2765,
      "Rcom": 2766,
      "4520": 2767,
      "4575": 2768,
      "4595": 2769,
      "4555": 2770,
      "4550": 2771,
      "PROB": 2772,
      "AMSP": 2773,
      "5030": 2774,
      "5060": 2775,
      "5070": 2776,
      "5085": 2777,
      "5095": 2778,
      "PROGR": 2779,
      "4600": 2780,
      "4655": 2781,
      "4705": 2782,
      "4750": 2783,
      "4800": 2784,
      "4955": 2785,
      "Facturation": 2786,
      "FournisseurForm": 2787,
      "JavaForm": 2788,
      "PrgSpeJavaForm": 2789,
      "AMSPE": 2790,
      "PROGRAMSPE": 2791,
      "43": 2792,
      "4610": 2793,
      "4635": 2794,
      "4710": 2795,
      "4720": 2796,
      "4740": 2797,
      "4830": 2798,
      "4845": 2799,
      "4865": 2800,
      "4915": 2801,
      "4940": 2802,
      "4980": 2803,
      "5130": 2804,
      "5175": 2805,
      "5185": 2806,
      "5240": 2807,
      "5210": 2808,
      "5220": 2809,
      "5250": 2810,
      "5290": 2811,
      "5420": 2812,
      "JE": 2813,
      "Or": 2814,
      "mrm": 2815,
      "4590": 2816,
      "5543": 2817,
      "OBJE": 2818,
      "5010": 2819,
      "5015": 2820,
      "5025": 2821,
      "5035": 2822,
      "5040": 2823,
      "5055": 2824,
      "5050": 2825,
      "SUV": 2826,
      "4855": 2827,
      "4905": 2828,
      "4895": 2829,
      "4885": 2830,
      "4970": 2831,
      "4985": 2832,
      "5115": 2833,
      "5125": 2834,
      "5135": 2835,
      "5105": 2836,
      "5150": 2837,
      "5225": 2838,
      "5235": 2839,
      "5005": 2840,
      "5295": 2841,
      "5350": 2842,
      "5395": 2843,
      "ITI": 2844,
      "opilo": 2845,
      "analyse": 2846,
      "teController": 2847,
      "5020": 2848,
      "5045": 2849,
      "5065": 2850,
      "5080": 2851,
      "QUES": 2852,
      "4900": 2853,
      "Cart": 2854,
      "POLITI": 2855,
      "AuditIncrForm": 2856,
      "6342": 2857,
      "opiloteController": 2858,
      "CartopiloteController": 2859,
      "POLITIQUES": 2860,
      "5140": 2861,
      "5160": 2862,
      "5170": 2863,
      "5195": 2864,
      "5110": 2865,
      "5200": 2866,
      "5155": 2867,
      "5230": 2868,
      "5245": 2869,
      "5215": 2870,
      "5280": 2871,
      "5255": 2872,
      "5300": 2873,
      "5310": 2874,
      "5315": 2875,
      "5375": 2876,
      "5410": 2877,
      "5645": 2878,
      "5695": 2879,
      "5865": 2880,
      "Ar": 2881,
      "spe": 2882,
      "5075": 2883,
      "5090": 2884,
      "ModeleController": 2885,
      "SpeForm": 2886,
      "AbstractHomeView": 2887,
      "tarspe": 2888,
      "SaisieTarSpeForm": 2889,
      "5120": 2890,
      "5145": 2891,
      "5165": 2892,
      "5180": 2893,
      "5190": 2894,
      "5260": 2895,
      "5265": 2896,
      "5285": 2897,
      "5340": 2898,
      "5345": 2899,
      "5360": 2900,
      "5320": 2901,
      "5365": 2902,
      "5330": 2903,
      "5355": 2904,
      "5470": 2905,
      "5405": 2906,
      "5670": 2907,
      "5725": 2908,
      "5735": 2909,
      "5770": 2910,
      "5795": 2911,
      "5825": 2912,
      "5820": 2913,
      "5880": 2914,
      "5885": 2915,
      "Non": 2916,
      "ite": 2917,
      "formite": 2918,
      "252": 2919,
      "Verrou": 2920,
      "5605": 2921,
      "LogController": 2922,
      "VisuLogController": 2923,
      "conformite": 2924,
      "VerrousController": 2925,
      "020": 2926,
      "5270": 2927,
      "5275": 2928,
      "5335": 2929,
      "5305": 2930,
      "5370": 2931,
      "5325": 2932,
      "5380": 2933,
      "5385": 2934,
      "5390": 2935,
      "5400": 2936,
      "5415": 2937,
      "5425": 2938,
      "5440": 2939,
      "5430": 2940,
      "5465": 2941,
      "5480": 2942,
      "5485": 2943,
      "5610": 2944,
      "5680": 2945,
      "5675": 2946,
      "5740": 2947,
      "5775": 2948,
      "5745": 2949,
      "5765": 2950,
      "5790": 2951,
      "5840": 2952,
      "5845": 2953,
      "MM": 2954,
      "6000": 2955,
      "6050": 2956,
      "5530": 2957,
      "5580": 2958,
      "5585": 2959,
      "5590": 2960,
      "5500": 2961,
      "5550": 2962,
      "5700": 2963,
      "5505": 2964,
      "5650": 2965,
      "5805": 2966,
      "5750": 2967,
      "5855": 2968,
      "FonctionForm": 2969,
      "Visite": 2970,
      "5460": 2971,
      "5435": 2972,
      "5475": 2973,
      "5450": 2974,
      "5455": 2975,
      "5615": 2976,
      "5620": 2977,
      "5635": 2978,
      "5660": 2979,
      "5710": 2980,
      "5720": 2981,
      "5715": 2982,
      "5730": 2983,
      "5760": 2984,
      "5815": 2985,
      "5830": 2986,
      "5835": 2987,
      "5860": 2988,
      "5870": 2989,
      "5895": 2990,
      "5890": 2991,
      "5925": 2992,
      "5920": 2993,
      "5915": 2994,
      "5940": 2995,
      "5945": 2996,
      "5970": 2997,
      "5990": 2998,
      "6100": 2999,
      "6130": 3000,
      "6110": 3001,
      "GEN": 3002,
      "6010": 3003,
      "6055": 3004,
      "5520": 3005,
      "5535": 3006,
      "5560": 3007,
      "5565": 3008,
      "5595": 3009,
      "5705": 3010,
      "5600": 3011,
      "5800": 3012,
      "5950": 3013,
      "ReceptionForm": 3014,
      "47": 3015,
      "5445": 3016,
      "5490": 3017,
      "5495": 3018,
      "5625": 3019,
      "5630": 3020,
      "5640": 3021,
      "5665": 3022,
      "5685": 3023,
      "5690": 3024,
      "5780": 3025,
      "5785": 3026,
      "5810": 3027,
      "5875": 3028,
      "5910": 3029,
      "5935": 3030,
      "5930": 3031,
      "5975": 3032,
      "5965": 3033,
      "5985": 3034,
      "6150": 3035,
      "6155": 3036,
      "Dif": 3037,
      "PTION": 3038,
      "STES": 3039,
      "6020": 3040,
      "6025": 3041,
      "6030": 3042,
      "6045": 3043,
      "6060": 3044,
      "6065": 3045,
      "6075": 3046,
      "6095": 3047,
      "5510": 3048,
      "5515": 3049,
      "5525": 3050,
      "5540": 3051,
      "5545": 3052,
      "5570": 3053,
      "5575": 3054,
      "5555": 3055,
      "RECE": 3056,
      "POSTES": 3057,
      "5655": 3058,
      "5755": 3059,
      "5850": 3060,
      "5900": 3061,
      "5905": 3062,
      "5955": 3063,
      "Java": 3064,
      "4744": 3065,
      "Diff": 3066,
      "RECEPTION": 3067,
      ")>,": 3068,
      "5960": 3069,
      "5980": 3070,
      "5995": 3071,
      "6115": 3072,
      "6135": 3073,
      "6140": 3074,
      "6105": 3075,
      "6170": 3076,
      "6175": 3077,
      "6245": 3078,
      "6370": 3079,
      "6355": 3080,
      "BET": 3081,
      "Cre": 3082,
      "Man": 3083,
      "voi": 3084,
      "ransf": 3085,
      "chersForm": 3086,
      "6015": 3087,
      "6035": 3088,
      "6040": 3089,
      "6070": 3090,
      "6080": 3091,
      "9544": 3092,
      "PARAMGEN": 3093,
      "6005": 3094,
      "Envoi": 3095,
      "SearchersForm": 3096,
      "BETA": 3097,
      "6120": 3098,
      "6125": 3099,
      "6145": 3100,
      "6195": 3101,
      "6225": 3102,
      "6205": 3103,
      "6235": 3104,
      "6240": 3105,
      "6265": 3106,
      "6215": 3107,
      "6280": 3108,
      "6335": 3109,
      "6345": 3110,
      "6325": 3111,
      "6445": 3112,
      "DR": 3113,
      "Em": 3114,
      "Men": 3115,
      "Op": 3116,
      "RIS": 3117,
      "regle": 3118,
      "era": 3119,
      "ationController": 3120,
      "STAU": 3121,
      "6085": 3122,
      "6090": 3123,
      "ActiModele": 3124,
      "isForm": 3125,
      "RESTAU": 3126,
      "AnalyseModeleController": 3127,
      "6505": 3128,
      "TacheForm": 3129,
      "modeletache": 3130,
      "VisuMessageEm": 3131,
      "Opera": 3132,
      "RISQ": 3133,
      "reglement": 3134,
      "ActiModeleTacheForm": 3135,
      "VisuMessageEmisForm": 3136,
      "6160": 3137,
      "6180": 3138,
      "6190": 3139,
      "6200": 3140,
      "6270": 3141,
      "6230": 3142,
      "6210": 3143,
      "6220": 3144,
      "6275": 3145,
      "6285": 3146,
      "6255": 3147,
      "6360": 3148,
      "6315": 3149,
      "6320": 3150,
      "6365": 3151,
      "6330": 3152,
      "6385": 3153,
      "6350": 3154,
      "6425": 3155,
      "6465": 3156,
      "6475": 3157,
      "6405": 3158,
      "6480": 3159,
      "6695": 3160,
      "Droi": 3161,
      "Edition": 3162,
      "LEM": 3163,
      "SER": 3164,
      "SAGE": 3165,
      "dic": 3166,
      "fic": 3167,
      "mfic": 3168,
      "ssForm": 3169,
      "tsController": 3170,
      "uelle": 3171,
      "anceCre": 3172,
      "STANCE": 3173,
      "istanceCre": 3174,
      "ESSAGE": 3175,
      "6580": 3176,
      "DemandeAss": 3177,
      "DEMANDEAS": 3178,
      "SISTANCE": 3179,
      "6650": 3180,
      "6655": 3181,
      "EditMa": 3182,
      "MessageForm": 3183,
      "ModeleMessageForm": 3184,
      "POLSECU": 3185,
      "MODELEM": 3186,
      "DroitsController": 3187,
      "istanceCreationController": 3188,
      "DemandeAssistanceCreationController": 3189,
      "DEMANDEASSISTANCE": 3190,
      "EditMassForm": 3191,
      "MODELEMESSAGE": 3192,
      "6165": 3193,
      "6185": 3194,
      "6260": 3195,
      "6250": 3196,
      "6290": 3197,
      "6295": 3198,
      "6300": 3199,
      "6340": 3200,
      "6305": 3201,
      "6310": 3202,
      "6380": 3203,
      "6400": 3204,
      "6410": 3205,
      "6420": 3206,
      "6435": 3207,
      "6485": 3208,
      "6495": 3209,
      "6455": 3210,
      "6610": 3211,
      "6660": 3212,
      "6665": 3213,
      "6720": 3214,
      "6730": 3215,
      "6775": 3216,
      "Ec": 3217,
      "Gen": 3218,
      "USE": 3219,
      "ULO": 3220,
      "ection": 3221,
      "jection": 3222,
      "suelle": 3223,
      "Chaine": 3224,
      "EDITION": 3225,
      "6515": 3226,
      "6520": 3227,
      "6530": 3228,
      "6535": 3229,
      "6545": 3230,
      "6570": 3231,
      "6500": 3232,
      "6555": 3233,
      "TOULO": 3234,
      "6700": 3235,
      "Typ": 3236,
      "FacturationMen": 3237,
      "EditionsController": 3238,
      "Ecran": 3239,
      "GenForm": 3240,
      "suelleController": 3241,
      "EDITIONS": 3242,
      "TOULOUSE": 3243,
      "FacturationMensuelleController": 3244,
      "6375": 3245,
      "6390": 3246,
      "6395": 3247,
      "6415": 3248,
      "6440": 3249,
      "6460": 3250,
      "6430": 3251,
      "6470": 3252,
      "6490": 3253,
      "6450": 3254,
      "6620": 3255,
      "6625": 3256,
      "6635": 3257,
      "6680": 3258,
      "6675": 3259,
      "6685": 3260,
      "6690": 3261,
      "6710": 3262,
      "6725": 3263,
      "6740": 3264,
      "6735": 3265,
      "6765": 3266,
      "6760": 3267,
      "6965": 3268,
      "Serveur": 3269,
      "hic": 3270,
      "Injection": 3271,
      "6510": 3272,
      "6525": 3273,
      "6540": 3274,
      "6560": 3275,
      "6565": 3276,
      "6590": 3277,
      "6595": 3278,
      "6550": 3279,
      "ActiService": 3280,
      "POINT": 3281,
      "ModeleQuestionnaireForm": 3282,
      "VisuMessageHomeView": 3283,
      "AbstractVisuMessageHomeView": 3284,
      "hicule": 3285,
      "POINTDBA": 3286,
      "050": 3287,
      "6615": 3288,
      "6630": 3289,
      "6670": 3290,
      "6640": 3291,
      "6645": 3292,
      "6715": 3293,
      "6745": 3294,
      "6770": 3295,
      "6795": 3296,
      "6790": 3297,
      "6810": 3298,
      "6815": 3299,
      "6820": 3300,
      "6835": 3301,
      "6925": 3302,
      "AO": 3303,
      "Ba": 3304,
      "Droits": 3305,
      "Import": 3306,
      "Supervi": 3307,
      "import": 3308,
      "uForm": 3309,
      "lem": 3310,
      "res": 3311,
      "telem": 3312,
      "GPAO": 3313,
      "7065": 3314,
      "6575": 3315,
      "6585": 3316,
      "SVEN": 3317,
      "InstanceHomeView": 3318,
      "manu": 3319,
      "siondroits": 3320,
      "6705": 3321,
      "6600": 3322,
      "6605": 3323,
      "6805": 3324,
      "6755": 3325,
      "6955": 3326,
      "ACHATSVEN": 3327,
      "supervisiondroits": 3328,
      "ParameterHomeView": 3329,
      "Visites": 3330,
      "ManuForm": 3331,
      "ransfer": 3332,
      "InjectionsController": 3333,
      "Base": 3334,
      "DroitsSupervi": 3335,
      "ImportManuForm": 3336,
      "importmanu": 3337,
      "ACHATSVENTES": 3338,
      "DroitsSupervision": 3339,
      "6780": 3340,
      "6830": 3341,
      "6840": 3342,
      "6845": 3343,
      "6885": 3344,
      "6890": 3345,
      "6930": 3346,
      "6940": 3347,
      "6980": 3348,
      "6985": 3349,
      "7170": 3350,
      "ATEUR": 3351,
      "CATEUR": 3352,
      "GOU": 3353,
      "cais": 3354,
      "fere": 3355,
      "ssion": 3356,
      "Indic": 3357,
      "7025": 3358,
      "7045": 3359,
      "7000": 3360,
      "7050": 3361,
      "sementForm": 3362,
      "FichierDis": 3363,
      "cussion": 3364,
      "6750": 3365,
      "6950": 3366,
      "6855": 3367,
      "INDICATEUR": 3368,
      "tarbase": 3369,
      "SaisieTarBase": 3370,
      "Encais": 3371,
      "ArtForm": 3372,
      "GOUV": 3373,
      "ference": 3374,
      "Indicateur": 3375,
      "FichierDiscussion": 3376,
      "SaisieTarBaseArtForm": 3377,
      "EncaissementForm": 3378,
      "6785": 3379,
      "6825": 3380,
      "6860": 3381,
      "6875": 3382,
      "6880": 3383,
      "6865": 3384,
      "6895": 3385,
      "6920": 3386,
      "6975": 3387,
      "6960": 3388,
      "6970": 3389,
      "6995": 3390,
      "6990": 3391,
      "7100": 3392,
      "7130": 3393,
      "7105": 3394,
      "7145": 3395,
      "Part": 3396,
      "Ve": 3397,
      "ave": 3398,
      "ant": 3399,
      "Ext": 3400,
      "7015": 3401,
      "7020": 3402,
      "7030": 3403,
      "7035": 3404,
      "7040": 3405,
      "7070": 3406,
      "7080": 3407,
      "7085": 3408,
      "7090": 3409,
      "7095": 3410,
      "7055": 3411,
      "avant": 3412,
      "6800": 3413,
      "6850": 3414,
      "6905": 3415,
      "7005": 3416,
      "Conso": 3417,
      "RcomVteForm": 3418,
      "6870": 3419,
      "6910": 3420,
      "6935": 3421,
      "6915": 3422,
      "6945": 3423,
      "7115": 3424,
      "7120": 3425,
      "7135": 3426,
      "7190": 3427,
      "7110": 3428,
      "7155": 3429,
      "7235": 3430,
      "729": 3431,
      "916": 3432,
      "Er": 3433,
      "Heb": 3434,
      "IV": 3435,
      "SAIRE": 3436,
      "rave": 3437,
      "yst": 3438,
      "¨me": 3439,
      "Ã¨me": 3440,
      "Ġsyst": 3441,
      "Ġgrave": 3442,
      "7010": 3443,
      "7060": 3444,
      "7075": 3445,
      "doMES": 3446,
      "6900": 3447,
      "SuiviHeb": 3448,
      "AuditIncrHomeView": 3449,
      "DRIV": 3450,
      "IndicateurFormulaireForm": 3451,
      "7299": 3452,
      "9161": 3453,
      "Erreur": 3454,
      "SAIREC": 3455,
      "ĠsystÃ¨me": 3456,
      "SuiviHebdoMES": 3457,
      "DRIVER": 3458,
      "7125": 3459,
      "7140": 3460,
      "7160": 3461,
      "7165": 3462,
      "7175": 3463,
      "7180": 3464,
      "7150": 3465,
      "7225": 3466,
      "7240": 3467,
      "7215": 3468,
      "7275": 3469,
      "7280": 3470,
      "7300": 3471,
      "7305": 3472,
      "7325": 3473,
      "7400": 3474,
      "Ci": 3475,
      "RATION": 3476,
      "Sec": 3477,
      "Te": 3478,
      "dForm": 3479,
      "uri": 3480,
      "ancom": 3481,
      "bleCopiloteForm": 3482,
      "uit": 3483,
      "ARD": 3484,
      "vehicule": 3485,
      "ParamMAINT": 3486,
      "ParamSearchersForm": 3487,
      "QualificationCi": 3488,
      "ExecutionControllerHomeView": 3489,
      "MODERATION": 3490,
      "ParameterController": 3491,
      "Securi": 3492,
      "QualificationCibleCopiloteForm": 3493,
      "SecuriteForm": 3494,
      "7185": 3495,
      "7195": 3496,
      "7200": 3497,
      "7270": 3498,
      "7230": 3499,
      "7205": 3500,
      "7210": 3501,
      "7220": 3502,
      "7250": 3503,
      "7285": 3504,
      "7290": 3505,
      "7295": 3506,
      "7340": 3507,
      "7335": 3508,
      "7345": 3509,
      "7365": 3510,
      "7370": 3511,
      "7330": 3512,
      "7350": 3513,
      "7390": 3514,
      "7395": 3515,
      "7410": 3516,
      "7460": 3517,
      "7405": 3518,
      "7490": 3519,
      "7610": 3520,
      "Brou": 3521,
      "itor": 3522,
      "rdForm": 3523,
      "lectionPart": 3524,
      "Reco": 3525,
      "lardForm": 3526,
      "VICE": 3527,
      "illardForm": 3528,
      "StatSe": 3529,
      "WEBSER": 3530,
      "Doc": 3531,
      "WebService": 3532,
      "BrouillardForm": 3533,
      "StatSelectionPart": 3534,
      "WEBSERVICE": 3535,
      "WebServiceForm": 3536,
      "7245": 3537,
      "7260": 3538,
      "7265": 3539,
      "7255": 3540,
      "7310": 3541,
      "7360": 3542,
      "7315": 3543,
      "7320": 3544,
      "7380": 3545,
      "7375": 3546,
      "7385": 3547,
      "7355": 3548,
      "7415": 3549,
      "7420": 3550,
      "7430": 3551,
      "7470": 3552,
      "7485": 3553,
      "7495": 3554,
      "7450": 3555,
      "7615": 3556,
      "7640": 3557,
      "7660": 3558,
      "7715": 3559,
      "7780": 3560,
      "ique": 3561,
      "nique": 3562,
      "transfer": 3563,
      "chController": 3564,
      "chnique": 3565,
      "ORController": 3566,
      "7530": 3567,
      "7595": 3568,
      "AccueilHomeView": 3569,
      "AccueilPlanification": 3570,
      "7700": 3571,
      "7505": 3572,
      "erneForm": 3573,
      "DevisAccueilHomeView": 3574,
      "SearchController": 3575,
      "DroitsSupervisionSearchController": 3576,
      "ExterneForm": 3577,
      "Technique": 3578,
      "AccueilPlanificationVC": 3579,
      "7445": 3580,
      "7425": 3581,
      "7440": 3582,
      "7435": 3583,
      "7465": 3584,
      "7475": 3585,
      "7480": 3586,
      "7455": 3587,
      "7625": 3588,
      "7630": 3589,
      "7670": 3590,
      "7690": 3591,
      "7720": 3592,
      "7730": 3593,
      "7735": 3594,
      "7745": 3595,
      "7785": 3596,
      "7825": 3597,
      "7830": 3598,
      "7895": 3599,
      "CEL": 3600,
      "EAC": 3601,
      "POP": 3602,
      "cEcran": 3603,
      "sai": 3604,
      "aite": 3605,
      "7515": 3606,
      "7520": 3607,
      "7535": 3608,
      "7590": 3609,
      "7500": 3610,
      "7550": 3611,
      "FICHEAC": 3612,
      "ARCEL": 3613,
      "REcEcran": 3614,
      "Traite": 3615,
      "7750": 3616,
      "7805": 3617,
      "FORMANCE": 3618,
      "RECL": 3619,
      "PERFORMANCE": 3620,
      "Console": 3621,
      "POPARCEL": 3622,
      "saiREcEcran": 3623,
      "FICHEACT": 3624,
      "Traitement": 3625,
      "POPARCELLE": 3626,
      "7620": 3627,
      "7635": 3628,
      "7645": 3629,
      "7665": 3630,
      "7680": 3631,
      "7675": 3632,
      "7695": 3633,
      "7685": 3634,
      "7600": 3635,
      "7605": 3636,
      "7710": 3637,
      "7725": 3638,
      "7740": 3639,
      "7650": 3640,
      "7775": 3641,
      "7770": 3642,
      "7765": 3643,
      "7760": 3644,
      "7795": 3645,
      "7790": 3646,
      "7810": 3647,
      "7815": 3648,
      "7820": 3649,
      "7835": 3650,
      "7840": 3651,
      "7845": 3652,
      "7875": 3653,
      "7865": 3654,
      "7870": 3655,
      "7890": 3656,
      "7915": 3657,
      "7975": 3658,
      "7945": 3659,
      "7960": 3660,
      "7980": 3661,
      "7985": 3662,
      "Nou": 3663,
      "cle": 3664,
      "ticle": 3665,
      "leController": 3666,
      "aie": 3667,
      "acleController": 3668,
      "CORE": 3669,
      "auCompte": 3670,
      "7510": 3671,
      "7525": 3672,
      "7540": 3673,
      "7545": 3674,
      "7560": 3675,
      "7570": 3676,
      "7565": 3677,
      "7575": 3678,
      "7580": 3679,
      "7585": 3680,
      "7555": 3681,
      "ONCE": 3682,
      "veauCompte": 3683,
      "ANNONCE": 3684,
      "7755": 3685,
      "7705": 3686,
      "7655": 3687,
      "7800": 3688,
      "7855": 3689,
      "ParamAction": 3690,
      "parame": 3691,
      "RcomAch": 3692,
      "FacturationNou": 3693,
      "OracleController": 3694,
      "Article": 3695,
      "ConsoleOracleController": 3696,
      "veauCompteController": 3697,
      "ANNONCEDEV": 3698,
      "FacturationNouveauCompteController": 3699,
      "ArticleORController": 3700,
      "7860": 3701,
      "7880": 3702,
      "7885": 3703,
      "7910": 3704,
      "7925": 3705,
      "7920": 3706,
      "7935": 3707,
      "7930": 3708,
      "7940": 3709,
      "7965": 3710,
      "7970": 3711,
      "7995": 3712,
      "8130": 3713,
      "8155": 3714,
      "8205": 3715,
      "8215": 3716,
      "8415": 3717,
      "Ru": 3718,
      "RET": 3719,
      "aTable": 3720,
      "bInterventionController": 3721,
      "fForm": 3722,
      "ire": 3723,
      "sso": 3724,
      "ures": 3725,
      "cesso": 3726,
      "urForm": 3727,
      "8015": 3728,
      "8020": 3729,
      "gaForm": 3730,
      "Accesso": 3731,
      "OPPO": 3732,
      "7950": 3733,
      "7955": 3734,
      "7850": 3735,
      "7900": 3736,
      "7905": 3737,
      "8005": 3738,
      "ParamOr": 3739,
      "RESO": 3740,
      "Mesures": 3741,
      "Equipement": 3742,
      "LettrageCptGenForm": 3743,
      "SELF": 3744,
      "OraTable": 3745,
      "ServeurForm": 3746,
      "DocExterneForm": 3747,
      "parametrage": 3748,
      "RubInterventionController": 3749,
      "RETARD": 3750,
      "ireEquipementForm": 3751,
      "AccessoireEquipementForm": 3752,
      "ParamOrgaForm": 3753,
      "OraTableDialog": 3754,
      "418": 3755,
      "4634": 3756,
      "6418": 3757,
      "7990": 3758,
      "8100": 3759,
      "8145": 3760,
      "8165": 3761,
      "8175": 3762,
      "8180": 3763,
      "8185": 3764,
      "8150": 3765,
      "8195": 3766,
      "8110": 3767,
      "8225": 3768,
      "8240": 3769,
      "8210": 3770,
      "8220": 3771,
      "8375": 3772,
      "8450": 3773,
      "8645": 3774,
      "CK": 3775,
      "CHE": 3776,
      "EAIRE": 3777,
      "Fin": 3778,
      "KP": 3779,
      "LIN": 3780,
      "LEV": 3781,
      "cm": 3782,
      "ent": 3783,
      "ete": 3784,
      "ise": 3785,
      "kl": 3786,
      "kTrace": 3787,
      "mise": 3788,
      "scu": 3789,
      "rent": 3790,
      "reference": 3791,
      "remise": 3792,
      "urrent": 3793,
      "gleSearchersForm": 3794,
      "Chec": 3795,
      "Reference": 3796,
      "RegleSearchersForm": 3797,
      "ierForm": 3798,
      "8010": 3799,
      "8025": 3800,
      "8030": 3801,
      "8035": 3802,
      "8040": 3803,
      "8045": 3804,
      "8080": 3805,
      "8085": 3806,
      "8000": 3807,
      "8055": 3808,
      "8050": 3809,
      "statscu": 3810,
      "muls": 3811,
      "RELEV": 3812,
      "ntesForm": 3813,
      "LIST": 3814,
      "WebController": 3815,
      "CommandeVe": 3816,
      "StackTrace": 3817,
      "JourForm": 3818,
      "Produit": 3819,
      "suivi": 3820,
      "CptGenForm": 3821,
      "Concurrent": 3822,
      "EcranForm": 3823,
      "TraitementFin": 3824,
      "CKLIST": 3825,
      "CHECKLIST": 3826,
      "KPI": 3827,
      "LINEAIRE": 3828,
      "cmd": 3829,
      "entete": 3830,
      "klist": 3831,
      "references": 3832,
      "Checklist": 3833,
      "ReferencesController": 3834,
      "statscumuls": 3835,
      "RELEVE": 3836,
      "CommandeVentesForm": 3837,
      "StackTraceController": 3838,
      "ProduitConcurrent": 3839,
      "TraitementFinJourForm": 3840,
      "entetecmd": 3841,
      "ProduitConcurrentForm": 3842,
      ")),": 3843,
      "8115": 3844,
      "8120": 3845,
      "8125": 3846,
      "8135": 3847,
      "8140": 3848,
      "8105": 3849,
      "8160": 3850,
      "8170": 3851,
      "8190": 3852,
      "8200": 3853,
      "8270": 3854,
      "8230": 3855,
      "8235": 3856,
      "8245": 3857,
      "8265": 3858,
      "8280": 3859,
      "8295": 3860,
      "8300": 3861,
      "8310": 3862,
      "8385": 3863,
      "8390": 3864,
      "8395": 3865,
      "8440": 3866,
      "8480": 3867,
      "8485": 3868,
      "8490": 3869,
      "8455": 3870,
      "8640": 3871,
      "8680": 3872,
      "CAL": 3873,
      "DRIER": 3874,
      "EF": 3875,
      "jav": 3876,
      "rierForm": 3877,
      "Ġ(": 3878,
      "lend": 3879,
      "leve": 3880,
      "gesController": 3881,
      "SaisieFonction": 3882,
      "urs": 3883,
      "8060": 3884,
      "8070": 3885,
      "8065": 3886,
      "8075": 3887,
      "8090": 3888,
      "8095": 3889,
      "8535": 3890,
      "8560": 3891,
      "8565": 3892,
      "8500": 3893,
      "ActiTyp": 3894,
      "ActiviteForm": 3895,
      "DemandeCon": 3896,
      "CONGES": 3897,
      "ENDRIER": 3898,
      "DSISECU": 3899,
      "taches": 3900,
      "Calend": 3901,
      "BASER": 3902,
      "MajFactureVteForm": 3903,
      "ParamActionPrgSpe": 3904,
      "CALENDRIER": 3905,
      "java": 3906,
      "SaisieFonctionEcranForm": 3907,
      "ActiTypActiviteForm": 3908,
      "DemandeCongesController": 3909,
      "CalendrierForm": 3910,
      "BASEREF": 3911,
      "514": 3912,
      "68": 3913,
      "8260": 3914,
      "8250": 3915,
      "8275": 3916,
      "8285": 3917,
      "8290": 3918,
      "8255": 3919,
      "8340": 3920,
      "8335": 3921,
      "8345": 3922,
      "8305": 3923,
      "8360": 3924,
      "8315": 3925,
      "8320": 3926,
      "8365": 3927,
      "8370": 3928,
      "8325": 3929,
      "8330": 3930,
      "8380": 3931,
      "8350": 3932,
      "8355": 3933,
      "8400": 3934,
      "8410": 3935,
      "8445": 3936,
      "8420": 3937,
      "8425": 3938,
      "8460": 3939,
      "8435": 3940,
      "8430": 3941,
      "8465": 3942,
      "8470": 3943,
      "8475": 3944,
      "8405": 3945,
      "8495": 3946,
      "8610": 3947,
      "8615": 3948,
      "8620": 3949,
      "8625": 3950,
      "8630": 3951,
      "8635": 3952,
      "8675": 3953,
      "8690": 3954,
      "8600": 3955,
      "8605": 3956,
      "8725": 3957,
      "8740": 3958,
      "8765": 3959,
      "8700": 3960,
      "8705": 3961,
      "8925": 3962,
      "94": 3963,
      "Cache": 3964,
      "ITES": 3965,
      "NION": 3966,
      "OITES": 3967,
      "PACE": 3968,
      "UNION": 3969,
      "ad": 3970,
      "cache": 3971,
      "gres": 3972,
      "onitor": 3973,
      "load": 3974,
      "reco": 3975,
      "ress": 3976,
      "releve": 3977,
      "INCU": 3978,
      "8510": 3979,
      "8515": 3980,
      "8520": 3981,
      "8525": 3982,
      "8530": 3983,
      "8540": 3984,
      "8545": 3985,
      "8570": 3986,
      "8575": 3987,
      "8580": 3988,
      "8585": 3989,
      "8590": 3990,
      "8595": 3991,
      "8555": 3992,
      "8550": 3993,
      "9568": 3994,
      "PlanningWebController": 3995,
      "StatList": 3996,
      "CompteurForm": 3997,
      "1794": 3998,
      "INFOCLI": 3999,
      "REUNION": 4000,
      "SUIVIDR": 4001,
      "smonitor": 4002,
      "8750": 4003,
      "8505": 4004,
      "planif": 4005,
      "ParamReco": 4006,
      "ParamDocExterneForm": 4007,
      "Progress": 4008,
      "Monitor": 4009,
      "MessagesController": 4010,
      "ModeleForm": 4011,
      "Lettre": 4012,
      "lettre": 4013,
      "FONCTION": 4014,
      "progres": 4015,
      "FonctionsController": 4016,
      "RecoPlanifController": 4017,
      "transferÃ©": 4018,
      "EquipementHomeView": 4019,
      "CacheController": 4020,
      "OITESPACE": 4021,
      "loadStatList": 4022,
      "recoplanif": 4023,
      "INCUB": 4024,
      "SUIVIDROITESPACE": 4025,
      "ParamRecoPlanif": 4026,
      "ProgressMonitor": 4027,
      "progressmonitor": 4028,
      "ProgressMonitorMessagesController": 4029,
      "8670": 4030,
      "8660": 4031,
      "8665": 4032,
      "8695": 4033,
      "8685": 4034,
      "8710": 4035,
      "8720": 4036,
      "8715": 4037,
      "8730": 4038,
      "8735": 4039,
      "8650": 4040,
      "8775": 4041,
      "8745": 4042,
      "8760": 4043,
      "8655": 4044,
      "8810": 4045,
      "8845": 4046,
      "8860": 4047,
      "8910": 4048,
      "8935": 4049,
      "8930": 4050,
      "8915": 4051,
      "8975": 4052,
      "8970": 4053,
      "8980": 4054,
      "8995": 4055,
      "Cod": 4056,
      "DC": 4057,
      "Li": 4058,
      "LDC": 4059,
      "Nuit": 4060,
      "PACK": 4061,
      "RU": 4062,
      "Run": 4063,
      "Transfer": 4064,
      "be": 4065,
      "cier": 4066,
      "den": 4067,
      "eRun": 4068,
      "fournisseur": 4069,
      "lModeleController": 4070,
      "ner": 4071,
      "paForm": 4072,
      "paie": 4073,
      "su": 4074,
      "rementForm": 4075,
      "ielModeleController": 4076,
      "erielModeleController": 4077,
      "inist": 4078,
      "ationForm": 4079,
      "DERU": 4080,
      "CODERU": 4081,
      "DEFLi": 4082,
      "9030": 4083,
      "9060": 4084,
      "9080": 4085,
      "9050": 4086,
      "NNER": 4087,
      "OBAL": 4088,
      "GLOBAL": 4089,
      "avaux": 4090,
      "smsi": 4091,
      "intage": 4092,
      "ard": 4093,
      "CasUtilis": 4094,
      "MaterielModeleController": 4095,
      "Sync": 4096,
      "FicheRefForm": 4097,
      "Releve": 4098,
      "SepaForm": 4099,
      "casu": 4100,
      "tilisation": 4101,
      "AuditIncrNestedWindow": 4102,
      "VirementForm": 4103,
      "transfert": 4104,
      "ChecklistForm": 4105,
      "LettreVirementForm": 4106,
      "lettrepaie": 4107,
      "CodeRun": 4108,
      "PACKAGE": 4109,
      "Transfert": 4110,
      "belle": 4111,
      "dencier": 4112,
      "fournisseurs": 4113,
      "nerForm": 4114,
      "inistre": 4115,
      "CODERUNNER": 4116,
      "DEFLibelle": 4117,
      "avauxNuit": 4118,
      "CasUtilisationForm": 4119,
      "casutilisation": 4120,
      "lettrepaiement": 4121,
      "CodeRunnerForm": 4122,
      "8770": 4123,
      "8780": 4124,
      "8795": 4125,
      "8785": 4126,
      "8790": 4127,
      "8825": 4128,
      "8815": 4129,
      "8820": 4130,
      "8830": 4131,
      "8835": 4132,
      "8840": 4133,
      "8875": 4134,
      "8880": 4135,
      "8865": 4136,
      "8870": 4137,
      "8895": 4138,
      "8885": 4139,
      "8890": 4140,
      "8920": 4141,
      "8940": 4142,
      "8945": 4143,
      "8965": 4144,
      "8960": 4145,
      "8985": 4146,
      "8990": 4147,
      "9160": 4148,
      "9155": 4149,
      "DARD": 4150,
      "HON": 4151,
      "Lig": 4152,
      "Paie": 4153,
      "PHON": 4154,
      "St": 4155,
      "dard": 4156,
      "li": 4157,
      "rSepaForm": 4158,
      "transf": 4159,
      "andard": 4160,
      "lev": 4161,
      "rement": 4162,
      "ReEdit": 4163,
      "STAN": 4164,
      "9010": 4165,
      "9015": 4166,
      "9020": 4167,
      "9025": 4168,
      "9035": 4169,
      "9040": 4170,
      "9045": 4171,
      "9070": 4172,
      "9065": 4173,
      "9075": 4174,
      "9000": 4175,
      "9055": 4176,
      "virement": 4177,
      "ViewTr": 4178,
      "Outil": 4179,
      "LIVR": 4180,
      "8755": 4181,
      "8800": 4182,
      "8805": 4183,
      "8950": 4184,
      "8955": 4185,
      "8850": 4186,
      "8855": 4187,
      "8900": 4188,
      "8905": 4189,
      "Carte": 4190,
      "9005": 4191,
      "SuiviVisite": 4192,
      "PATCHPROD": 4193,
      "ParamOutil": 4194,
      "AISON": 4195,
      "CdeForm": 4196,
      "ReceptForm": 4197,
      "VirSepaForm": 4198,
      "TypCompteRenduForm": 4199,
      "hiculeForm": 4200,
      "VehiculeForm": 4201,
      "TransfertVirSepaForm": 4202,
      "avauxNuitController": 4203,
      "PaiementForm": 4204,
      "PHONE": 4205,
      "Standard": 4206,
      "transfere": 4207,
      "ReEditCdeForm": 4208,
      "STANDARD": 4209,
      "ViewTravauxNuitController": 4210,
      "LIVRAISON": 4211,
      "CarteVehiculeForm": 4212,
      "SuiviVisiteurs": 4213,
      "ParamOutilsForm": 4214,
      "007": 4215,
      "9100": 4216,
      "9115": 4217,
      "9120": 4218,
      "9125": 4219,
      "9130": 4220,
      "9135": 4221,
      "9140": 4222,
      "9105": 4223,
      "9145": 4224,
      "9165": 4225,
      "9185": 4226,
      "9150": 4227,
      "9110": 4228,
      "9270": 4229,
      "9225": 4230,
      "9240": 4231,
      "9280": 4232,
      "9295": 4233,
      "9345": 4234,
      "9325": 4235,
      "9330": 4236,
      "9420": 4237,
      "9470": 4238,
      "9660": 4239,
      "9720": 4240,
      "9715": 4241,
      "9785": 4242,
      "9895": 4243,
      "9755": 4244,
      "9805": 4245,
      "9945": 4246,
      "Cp": 4247,
      "Ecrit": 4248,
      "IFIC": 4249,
      "Icon": 4250,
      "Pai": 4251,
      "RSE": 4252,
      "TAR": 4253,
      "UIL": 4254,
      "Vte": 4255,
      "bil": 4256,
      "cti": 4257,
      "cIn": 4258,
      "cpt": 4259,
      "cice": 4260,
      "four": 4261,
      "ille": 4262,
      "pai": 4263,
      "port": 4264,
      "rLig": 4265,
      "ty": 4266,
      "gen": 4267,
      "ercice": 4268,
      "indic": 4269,
      "ollecti": 4270,
      "ationPai": 4271,
      "10140": 4272,
      "10005": 4273,
      "ACCE": 4274,
      "ensionForm": 4275,
      "2024": 4276,
      "9085": 4277,
      "9090": 4278,
      "9095": 4279,
      "9515": 4280,
      "9520": 4281,
      "9580": 4282,
      "9550": 4283,
      "OPI": 4284,
      "isationPai": 4285,
      "NoteFraisForm": 4286,
      "10010": 4287,
      "10025": 4288,
      "10035": 4289,
      "10065": 4290,
      "10075": 4291,
      "10095": 4292,
      "compteur": 4293,
      "ProcIn": 4294,
      "Integ": 4295,
      "ProjetModeleForm": 4296,
      "SUIVIPROJET": 4297,
      "QUALIOPI": 4298,
      "9950": 4299,
      "9955": 4300,
      "9855": 4301,
      "9905": 4302,
      "9001": 4303,
      "SuiviProjetForm": 4304,
      "FacturerLig": 4305,
      "ParamNoteFraisForm": 4306,
      "nesForm": 4307,
      "ModeleEquipementForm": 4308,
      "Comptabil": 4309,
      "Famille": 4310,
      "RcomVte": 4311,
      "ExtensionForm": 4312,
      "suiviProcIn": 4313,
      "relevecompteur": 4314,
      "ReleveCompteurForm": 4315,
      "CptForm": 4316,
      "IFICATION": 4317,
      "IconController": 4318,
      "TARIFICATION": 4319,
      "cptgen": 4320,
      "paifour": 4321,
      "indicISO": 4322,
      "ACCEUIL": 4323,
      "isationPaiForm": 4324,
      "Integration": 4325,
      "FacturerLignesForm": 4326,
      "ComptabilisationPaiForm": 4327,
      "FamilleEquipementForm": 4328,
      "suiviProcIns": 4329,
      "9170": 4330,
      "9175": 4331,
      "9180": 4332,
      "9190": 4333,
      "9195": 4334,
      "9200": 4335,
      "9230": 4336,
      "9205": 4337,
      "9235": 4338,
      "9245": 4339,
      "9260": 4340,
      "9265": 4341,
      "9210": 4342,
      "9215": 4343,
      "9220": 4344,
      "9250": 4345,
      "9275": 4346,
      "9285": 4347,
      "9290": 4348,
      "9255": 4349,
      "9300": 4350,
      "9340": 4351,
      "9335": 4352,
      "9305": 4353,
      "9310": 4354,
      "9360": 4355,
      "9315": 4356,
      "9320": 4357,
      "9365": 4358,
      "9370": 4359,
      "9380": 4360,
      "9375": 4361,
      "9385": 4362,
      "9350": 4363,
      "9390": 4364,
      "9395": 4365,
      "9355": 4366,
      "9400": 4367,
      "9410": 4368,
      "9415": 4369,
      "9445": 4370,
      "9425": 4371,
      "9440": 4372,
      "9460": 4373,
      "9435": 4374,
      "9430": 4375,
      "9465": 4376,
      "9475": 4377,
      "9405": 4378,
      "9480": 4379,
      "9485": 4380,
      "9490": 4381,
      "9495": 4382,
      "9450": 4383,
      "9455": 4384,
      "9610": 4385,
      "9615": 4386,
      "9620": 4387,
      "9625": 4388,
      "9630": 4389,
      "9635": 4390,
      "9670": 4391,
      "9640": 4392,
      "9645": 4393,
      "9665": 4394,
      "9680": 4395,
      "9675": 4396,
      "9695": 4397,
      "9685": 4398,
      "9690": 4399,
      "9600": 4400,
      "9605": 4401,
      "9710": 4402,
      "9725": 4403,
      "9730": 4404,
      "9740": 4405,
      "9735": 4406,
      "9650": 4407,
      "9775": 4408,
      "9745": 4409,
      "9770": 4410,
      "9765": 4411,
      "9780": 4412,
      "9760": 4413,
      "9795": 4414,
      "9790": 4415,
      "9655": 4416,
      "9810": 4417,
      "9825": 4418,
      "9815": 4419,
      "9820": 4420,
      "9700": 4421,
      "9830": 4422,
      "9835": 4423,
      "9840": 4424,
      "9845": 4425,
      "9705": 4426,
      "9860": 4427,
      "9875": 4428,
      "9880": 4429,
      "9865": 4430,
      "9870": 4431,
      "9885": 4432,
      "9890": 4433,
      "9750": 4434,
      "9910": 4435,
      "9925": 4436,
      "9920": 4437,
      "9935": 4438,
      "9930": 4439,
      "9915": 4440,
      "9940": 4441,
      "9800": 4442,
      "9975": 4443,
      "9965": 4444,
      "9960": 4445,
      "9970": 4446,
      "9980": 4447,
      "9850": 4448,
      "9995": 4449,
      "9985": 4450,
      "9990": 4451,
      "GO": 4452,
      "Hel": 4453,
      "IM": 4454,
      "Im": 4455,
      "MPREV": 4456,
      "Mar": 4457,
      "Sinistre": 4458,
      "Th": 4459,
      "Tour": 4460,
      "aview": 4461,
      "cli": 4462,
      "eme": 4463,
      "lVC": 4464,
      "maint": 4465,
      "oForm": 4466,
      "pController": 4467,
      "rne": 4468,
      "sinistre": 4469,
      "tAd": 4470,
      "toForm": 4471,
      "ĠPARC": 4472,
      "ĠIM": 4473,
      "loci": 4474,
      "uelVC": 4475,
      "queEquipement": 4476,
      "ageForm": 4477,
      "Rem": 4478,
      "10100": 4479,
      "10105": 4480,
      "10270": 4481,
      "10240": 4482,
      "10245": 4483,
      "10260": 4484,
      "10210": 4485,
      "10310": 4486,
      "10390": 4487,
      "10410": 4488,
      "10460": 4489,
      "10465": 4490,
      "10405": 4491,
      "10620": 4492,
      "10550": 4493,
      "ult": 4494,
      "ACForm": 4495,
      "9510": 4496,
      "9525": 4497,
      "9530": 4498,
      "9535": 4499,
      "9540": 4500,
      "9545": 4501,
      "9560": 4502,
      "9570": 4503,
      "9565": 4504,
      "9575": 4505,
      "9585": 4506,
      "9590": 4507,
      "9595": 4508,
      "9500": 4509,
      "9555": 4510,
      "SVCLI": 4511,
      "planningSync": 4512,
      "PlanningSync": 4513,
      "ERGO": 4514,
      "CompteExterneForm": 4515,
      "COMPTEUR": 4516,
      "ARTE": 4517,
      "10015": 4518,
      "10020": 4519,
      "10030": 4520,
      "10040": 4521,
      "10045": 4522,
      "10060": 4523,
      "10070": 4524,
      "10080": 4525,
      "10085": 4526,
      "10090": 4527,
      "10055": 4528,
      "10050": 4529,
      "10515": 4530,
      "10535": 4531,
      "AnalyseurForm": 4532,
      "ProjetController": 4533,
      "Peri": 4534,
      "QUA": 4535,
      "contratmaint": 4536,
      "TERNE": 4537,
      "CHARTE": 4538,
      "9900": 4539,
      "Cadencier": 4540,
      "Carne": 4541,
      "9505": 4542,
      "10000": 4543,
      "banque": 4544,
      "InfoComp": 4545,
      "DevInfoComp": 4546,
      "EditReceptForm": 4547,
      "AutoForm": 4548,
      "ParamGest": 4549,
      "ParamTh": 4550,
      "TableInstall": 4551,
      "DialogController": 4552,
      "blocageDevInfoComp": 4553,
      "prelev": 4554,
      "pointage": 4555,
      "FormulaireListe": 4556,
      "cadencier": 4557,
      "SpeACForm": 4558,
      "EXTERNE": 4559,
      "tres": 4560,
      "POLQUA": 4561,
      "TarSpeACForm": 4562,
      "Pointage": 4563,
      "dataview": 4564,
      "analyseurs": 4565,
      "ManuelVC": 4566,
      "TypDocExterneForm": 4567,
      "DroitsSupervisionNestedWindow": 4568,
      "DroitsSupervisionHomeView": 4569,
      "Veloci": 4570,
      "TraitementAnalyseurForm": 4571,
      "ChecklistModeleForm": 4572,
      "relevebanque": 4573,
      "EcritAutoForm": 4574,
      "tyHel": 4575,
      "ImageForm": 4576,
      "MarqueEquipement": 4577,
      "SinistreForm": 4578,
      "TourTableInstall": 4579,
      "emesForm": 4580,
      "tAdr": 4581,
      "ĠIMMO": 4582,
      "CadencierAchForm": 4583,
      "CarnetAdr": 4584,
      "ParamGestProjetController": 4585,
      "ParamThemesForm": 4586,
      "blocageDevInfoCompl": 4587,
      "pointagerelevebanque": 4588,
      "PointageManuelVC": 4589,
      "VelocityHel": 4590,
      "VelocityHelpController": 4591,
      "AI": 4592,
      "At": 4593,
      "Bloc": 4594,
      "CAT": 4595,
      "CAR": 4596,
      "Collecti": 4597,
      "EP": 4598,
      "Err": 4599,
      "Enseigne": 4600,
      "Ide": 4601,
      "Me": 4602,
      "NR": 4603,
      "OS": 4604,
      "OUS": 4605,
      "POR": 4606,
      "RMA": 4607,
      "SOUS": 4608,
      "TB": 4609,
      "Ta": 4610,
      "TAGE": 4611,
      "ale": 4612,
      "ass": 4613,
      "collecti": 4614,
      "dice": 4615,
      "lat": 4616,
      "mForm": 4617,
      "pec": 4618,
      "rts": 4619,
      "sti": 4620,
      "serv": 4621,
      "spar": 4622,
      "sPar": 4623,
      "sult": 4624,
      "spec": 4625,
      "tution": 4626,
      "taut": 4627,
      "uSpe": 4628,
      "tif": 4629,
      "ange": 4630,
      "levForm": 4631,
      "Export": 4632,
      "Exercice": 4633,
      "metier": 4634,
      "metres": 4635,
      "ices": 4636,
      "mplat": 4637,
      "erAnalyse": 4638,
      "ritaut": 4639,
      "mentCollecti": 4640,
      "Change": 4641,
      "Revi": 4642,
      "RefForm": 4643,
      "orDialogController": 4644,
      "10115": 4645,
      "10120": 4646,
      "10125": 4647,
      "10130": 4648,
      "10135": 4649,
      "10145": 4650,
      "10160": 4651,
      "10165": 4652,
      "10170": 4653,
      "10175": 4654,
      "10180": 4655,
      "10185": 4656,
      "10150": 4657,
      "10190": 4658,
      "10195": 4659,
      "10110": 4660,
      "10200": 4661,
      "10155": 4662,
      "10225": 4663,
      "10230": 4664,
      "10205": 4665,
      "10235": 4666,
      "10265": 4667,
      "10215": 4668,
      "10220": 4669,
      "10250": 4670,
      "10275": 4671,
      "10285": 4672,
      "10280": 4673,
      "10290": 4674,
      "10295": 4675,
      "10255": 4676,
      "10300": 4677,
      "10340": 4678,
      "10335": 4679,
      "10345": 4680,
      "10305": 4681,
      "10360": 4682,
      "10315": 4683,
      "10320": 4684,
      "10365": 4685,
      "10370": 4686,
      "10325": 4687,
      "10330": 4688,
      "10380": 4689,
      "10375": 4690,
      "10385": 4691,
      "10350": 4692,
      "10395": 4693,
      "10355": 4694,
      "10400": 4695,
      "10415": 4696,
      "10445": 4697,
      "10420": 4698,
      "10425": 4699,
      "10440": 4700,
      "10435": 4701,
      "10430": 4702,
      "10470": 4703,
      "10475": 4704,
      "10480": 4705,
      "10485": 4706,
      "10490": 4707,
      "10495": 4708,
      "10450": 4709,
      "10455": 4710,
      "10505": 4711,
      "10610": 4712,
      "10615": 4713,
      "10625": 4714,
      "10555": 4715,
      "10645": 4716,
      "10600": 4717,
      "10605": 4718,
      "10760": 4719,
      "10755": 4720,
      "10930": 4721,
      "10950": 4722,
      "CRMAINT": 4723,
      "CRMWebController": 4724,
      "Indice": 4725,
      "ATTACHE": 4726,
      "FBInputForm": 4727,
      "tierORController": 4728,
      "11115": 4729,
      "11265": 4730,
      "11425": 4731,
      "11435": 4732,
      "11475": 4733,
      "11630": 4734,
      "11640": 4735,
      "11645": 4736,
      "FichePro": 4737,
      "FicheRMA": 4738,
      "Ancom": 4739,
      "DemandeAvoirForm": 4740,
      "PROSP": 4741,
      "alc": 4742,
      "11515": 4743,
      "11500": 4744,
      "DOCATTACHE": 4745,
      "10510": 4746,
      "10520": 4747,
      "10525": 4748,
      "10530": 4749,
      "10540": 4750,
      "10545": 4751,
      "10560": 4752,
      "10570": 4753,
      "10565": 4754,
      "10575": 4755,
      "10580": 4756,
      "10585": 4757,
      "10590": 4758,
      "10595": 4759,
      "10500": 4760,
      "AnalyseTe": 4761,
      "11010": 4762,
      "GLOS": 4763,
      "PerCptForm": 4764,
      "LIV": 4765,
      "ecritaut": 4766,
      "export": 4767,
      "exercice": 4768,
      "Consult": 4769,
      "tacheIde": 4770,
      "WebForm": 4771,
      "Prelev": 4772,
      "PrelevForm": 4773,
      "ParamGenForm": 4774,
      "ParamPlanningSync": 4775,
      "ParamMe": 4776,
      "ParamCRMWebController": 4777,
      "ArtVC": 4778,
      "MessageEnseigne": 4779,
      "XPLEP": 4780,
      "ReeditReceptForm": 4781,
      "DemonIntegration": 4782,
      "parammetier": 4783,
      "rifsPar": 4784,
      "tarifspar": 4785,
      "FamCptForm": 4786,
      "AbstractFBInputForm": 4787,
      "PERF": 4788,
      "ortiment": 4789,
      "consti": 4790,
      "CreerAnalyse": 4791,
      "MenuSpe": 4792,
      "TypContratMaint": 4793,
      "TypDoc": 4794,
      "IndicateurVC": 4795,
      "Parten": 4796,
      "DocAt": 4797,
      "ReleveIndicateurVC": 4798,
      "Perimetres": 4799,
      "AIDE": 4800,
      "BlocRefForm": 4801,
      "CARPRO": 4802,
      "ErrorDialogController": 4803,
      "PORTAGE": 4804,
      "SOUSCAT": 4805,
      "TarifsPar": 4806,
      "alerts": 4807,
      "assortiment": 4808,
      "collectif": 4809,
      "services": 4810,
      "spectForm": 4811,
      "tutions": 4812,
      "ExportProjetForm": 4813,
      "ExercicePerCptForm": 4814,
      "mplate": 4815,
      "mentCollectifForm": 4816,
      "ChangementCollectifForm": 4817,
      "Revision": 4818,
      "IndiceRevision": 4819,
      "FicheProspectForm": 4820,
      "FicheRMAForm": 4821,
      "AncomVteForm": 4822,
      "AnalyseTemplate": 4823,
      "ecritauto": 4824,
      "exporter": 4825,
      "ConsultTarifsPar": 4826,
      "tacheIdemForm": 4827,
      "ParamPlanningSyncController": 4828,
      "ParamMetierORController": 4829,
      "XPLEPUR": 4830,
      "DemonIntegrationMails": 4831,
      "tarifsparart": 4832,
      "constitutions": 4833,
      "CreerAnalyseParamAction": 4834,
      "MenuSpeWebForm": 4835,
      "DocAttacheIdemForm": 4836,
      "ConsultTarifsParArtVC": 4837,
      "11005": 4838,
      "AG": 4839,
      "As": 4840,
      "Aer": 4841,
      "ASE": 4842,
      "Ali": 4843,
      "Br": 4844,
      "Cat": 4845,
      "Cor": 4846,
      "Cli": 4847,
      "Calc": 4848,
      "DANCE": 4849,
      "Eche": 4850,
      "FS": 4851,
      "Gri": 4852,
      "Ges": 4853,
      "GOC": 4854,
      "Gare": 4855,
      "GNE": 4856,
      "Ht": 4857,
      "Jal": 4858,
      "Lu": 4859,
      "LTI": 4860,
      "LEB": 4861,
      "Mo": 4862,
      "MFS": 4863,
      "Ndf": 4864,
      "Pa": 4865,
      "Pour": 4866,
      "Qte": 4867,
      "RRES": 4868,
      "SS": 4869,
      "SCU": 4870,
      "SFACTUR": 4871,
      "bu": 4872,
      "ck": 4873,
      "cre": 4874,
      "cWeb": 4875,
      "cierForm": 4876,
      "calc": 4877,
      "etat": 4878,
      "eFormController": 4879,
      "eCli": 4880,
      "flo": 4881,
      "gTest": 4882,
      "kflo": 4883,
      "main": 4884,
      "mlForm": 4885,
      "mReleveIndicateurVC": 4886,
      "nel": 4887,
      "note": 4888,
      "nationController": 4889,
      "op": 4890,
      "ock": 4891,
      "pCon": 4892,
      "pRem": 4893,
      "qte": 4894,
      "rDe": 4895,
      "sIn": 4896,
      "sHomeView": 4897,
      "sInfo": 4898,
      "save": 4899,
      "sparame": 4900,
      "sPeri": 4901,
      "tforms": 4902,
      "tQual": 4903,
      "ute": 4904,
      "wor": 4905,
      "xFo": 4906,
      "ys": 4907,
      "onne": 4908,
      "onsPeri": 4909,
      "ancierForm": 4910,
      "leteForm": 4911,
      "leAs": 4912,
      "ueRe": 4913,
      "recep": 4914,
      "alogueRe": 4915,
      "SaisieRem": 4916,
      "ermodule": 4917,
      "inpu": 4918,
      "injection": 4919,
      "fig": 4920,
      "file": 4921,
      "cene": 4922,
      "LancementForm": 4923,
      "stFactForm": 4924,
      "stock": 4925,
      "ator": 4926,
      "Retard": 4927,
      "VTForm": 4928,
      "ortForm": 4929,
      "CORRES": 4930,
      "10630": 4931,
      "10635": 4932,
      "10670": 4933,
      "10640": 4934,
      "10660": 4935,
      "10665": 4936,
      "10680": 4937,
      "10675": 4938,
      "10695": 4939,
      "10685": 4940,
      "10690": 4941,
      "10710": 4942,
      "10720": 4943,
      "10715": 4944,
      "10725": 4945,
      "10730": 4946,
      "10740": 4947,
      "10735": 4948,
      "10650": 4949,
      "10775": 4950,
      "10745": 4951,
      "10770": 4952,
      "10765": 4953,
      "10780": 4954,
      "10795": 4955,
      "10785": 4956,
      "10790": 4957,
      "10655": 4958,
      "10810": 4959,
      "10825": 4960,
      "10815": 4961,
      "10820": 4962,
      "10700": 4963,
      "10830": 4964,
      "10835": 4965,
      "10840": 4966,
      "10845": 4967,
      "10705": 4968,
      "10860": 4969,
      "10875": 4970,
      "10880": 4971,
      "10865": 4972,
      "10870": 4973,
      "10895": 4974,
      "10885": 4975,
      "10890": 4976,
      "10750": 4977,
      "10910": 4978,
      "10925": 4979,
      "10920": 4980,
      "10935": 4981,
      "10915": 4982,
      "10940": 4983,
      "10800": 4984,
      "10975": 4985,
      "10805": 4986,
      "10945": 4987,
      "10965": 4988,
      "10960": 4989,
      "10970": 4990,
      "10980": 4991,
      "10850": 4992,
      "10995": 4993,
      "10985": 4994,
      "10990": 4995,
      "10855": 4996,
      "10905": 4997,
      "10900": 4998,
      "10955": 4999,
      "ulator": 5000,
      "aireFichier": 5001,
      "iersForm": 5002,
      "TIONNEL": 5003,
      "PlanningParam": 5004,
      "ActionCde": 5005,
      "ActiParam": 5006,
      "ActiPlanningParam": 5007,
      "FBForm": 5008,
      "modifqte": 5009,
      "11100": 5010,
      "11120": 5011,
      "11125": 5012,
      "11130": 5013,
      "11135": 5014,
      "11140": 5015,
      "11105": 5016,
      "11145": 5017,
      "11160": 5018,
      "11165": 5019,
      "11170": 5020,
      "11175": 5021,
      "11180": 5022,
      "11185": 5023,
      "11150": 5024,
      "11190": 5025,
      "11195": 5026,
      "11110": 5027,
      "11200": 5028,
      "11155": 5029,
      "11270": 5030,
      "11225": 5031,
      "11230": 5032,
      "11205": 5033,
      "11235": 5034,
      "11240": 5035,
      "11245": 5036,
      "11260": 5037,
      "11210": 5038,
      "11215": 5039,
      "11220": 5040,
      "11250": 5041,
      "11275": 5042,
      "11285": 5043,
      "11280": 5044,
      "11290": 5045,
      "11295": 5046,
      "11255": 5047,
      "11300": 5048,
      "11340": 5049,
      "11335": 5050,
      "11345": 5051,
      "11305": 5052,
      "11310": 5053,
      "11360": 5054,
      "11315": 5055,
      "11320": 5056,
      "11365": 5057,
      "11370": 5058,
      "11325": 5059,
      "11330": 5060,
      "11380": 5061,
      "11375": 5062,
      "11385": 5063,
      "11350": 5064,
      "11390": 5065,
      "11395": 5066,
      "11355": 5067,
      "11400": 5068,
      "11410": 5069,
      "11415": 5070,
      "11445": 5071,
      "11420": 5072,
      "11440": 5073,
      "11460": 5074,
      "11430": 5075,
      "11465": 5076,
      "11470": 5077,
      "11405": 5078,
      "11480": 5079,
      "11485": 5080,
      "11490": 5081,
      "11495": 5082,
      "11450": 5083,
      "11455": 5084,
      "11610": 5085,
      "11615": 5086,
      "11620": 5087,
      "11625": 5088,
      "11635": 5089,
      "11670": 5090,
      "11660": 5091,
      "11665": 5092,
      "11680": 5093,
      "11675": 5094,
      "11695": 5095,
      "11685": 5096,
      "11690": 5097,
      "11600": 5098,
      "11605": 5099,
      "11710": 5100,
      "11720": 5101,
      "11715": 5102,
      "11725": 5103,
      "11730": 5104,
      "11740": 5105,
      "11735": 5106,
      "11650": 5107,
      "11775": 5108,
      "11745": 5109,
      "11770": 5110,
      "11765": 5111,
      "11780": 5112,
      "11760": 5113,
      "11785": 5114,
      "11790": 5115,
      "11655": 5116,
      "11700": 5117,
      "11705": 5118,
      "11750": 5119,
      "11755": 5120,
      "IERS": 5121,
      "FICHIERS": 5122,
      "TESTFONC": 5123,
      "PARAMS": 5124,
      "DePointageManuelVC": 5125,
      "Debu": 5126,
      "dexFo": 5127,
      "Version": 5128,
      "11510": 5129,
      "11520": 5130,
      "11525": 5131,
      "11530": 5132,
      "11535": 5133,
      "11540": 5134,
      "11545": 5135,
      "11560": 5136,
      "11570": 5137,
      "11565": 5138,
      "11575": 5139,
      "11580": 5140,
      "11585": 5141,
      "11590": 5142,
      "11595": 5143,
      "11555": 5144,
      "11550": 5145,
      "AnalyseWF": 5146,
      "11015": 5147,
      "11020": 5148,
      "11025": 5149,
      "11030": 5150,
      "11035": 5151,
      "11040": 5152,
      "11045": 5153,
      "11060": 5154,
      "11070": 5155,
      "11065": 5156,
      "11075": 5157,
      "11080": 5158,
      "11085": 5159,
      "11090": 5160,
      "11095": 5161,
      "11000": 5162,
      "11055": 5163,
      "11050": 5164,
      "Intermodule": 5165,
      "LIGNE": 5166,
      "MULTI": 5167,
      "contrats": 5168,
      "frais": 5169,
      "onTravauxNuit": 5170,
      "TableauGri": 5171,
      "Doss": 5172,
      "Domain": 5173,
      "VENTE": 5174,
      "ExecMo": 5175,
      "ConstFactForm": 5176,
      "GED": 5177,
      "GESTIONNAIRE": 5178,
      "TestEnvoi": 5179,
      "CasTestExecMo": 5180,
      "PrepRem": 5181,
      "11505": 5182,
      "Copilote": 5183,
      "EditBonTravail": 5184,
      "EditBonLiv": 5185,
      "MODAN": 5186,
      "COMMANDESFACTUR": 5187,
      "CommandeType": 5188,
      "AnalogicDomain": 5189,
      "BASCU": 5190,
      "tionnaireFichier": 5191,
      "unionsPeri": 5192,
      "ParamContratMaintForm": 5193,
      "ParamTable": 5194,
      "ParamEdition": 5195,
      "ParamAG": 5196,
      "ParamsInfo": 5197,
      "ParamLancementForm": 5198,
      "ParamFBForm": 5199,
      "ParamGED": 5200,
      "FicheClientHomeView": 5201,
      "CDELIGNE": 5202,
      "EditFactureHt": 5203,
      "TableCopilote": 5204,
      "PONDANCE": 5205,
      "TABLEB": 5206,
      "ProfileAs": 5207,
      "blocagePour": 5208,
      "preleve": 5209,
      "DOSS": 5210,
      "INDIV": 5211,
      "ISOS": 5212,
      "CdeLig": 5213,
      "cdety": 5214,
      "signationController": 5215,
      "actioncde": 5216,
      "part": 5217,
      "ACHATVENTE": 5218,
      "MailAb": 5219,
      "ComptaRem": 5220,
      "profile": 5221,
      "TarBase": 5222,
      "PosteCli": 5223,
      "DemonTravauxNuit": 5224,
      "Fonctionnel": 5225,
      "ReeditBonLivParamAction": 5226,
      "MODELE": 5227,
      "ModifEche": 5228,
      "ModifQte": 5229,
      "config": 5230,
      "MassModifController": 5231,
      "ManForm": 5232,
      "Manuelle": 5233,
      "TypProjet": 5234,
      "InjectionsHomeView": 5235,
      "result": 5236,
      "respCon": 5237,
      "PartDialogController": 5238,
      "SAIRECStandard": 5239,
      "ConsoleLu": 5240,
      "suiviDev": 5241,
      "LettrePrelevForm": 5242,
      "lettreprelev": 5243,
      "TransfertPrelev": 5244,
      "EcritNdf": 5245,
      "IntegrationEcritForm": 5246,
      "IntegrationEcritNdf": 5247,
      "PlanningSyncProfileAs": 5248,
      "tifd": 5249,
      "PrelevManForm": 5250,
      "Partenaire": 5251,
      "PartenaireForm": 5252,
      "Aerop": 5253,
      "AlimReleveIndicateurVC": 5254,
      "Brute": 5255,
      "CatalogueRe": 5256,
      "CorrespCon": 5257,
      "Calculator": 5258,
      "GestionnaireFichier": 5259,
      "GOCE": 5260,
      "GareAerop": 5261,
      "Jalon": 5262,
      "MFSForm": 5263,
      "Pays": 5264,
      "creation": 5265,
      "cWebLaunchForm": 5266,
      "etatsparame": 5267,
      "gTestFonctionnel": 5268,
      "kflow": 5269,
      "notefrais": 5270,
      "rDeleteForm": 5271,
      "sIndexFo": 5272,
      "tQualForm": 5273,
      "workflow": 5274,
      "onnementForm": 5275,
      "reception": 5276,
      "SaisieRemManuelle": 5277,
      "inputforms": 5278,
      "injections": 5279,
      "ceneController": 5280,
      "stocks": 5281,
      "CORRESPONDANCE": 5282,
      "ActionCdeVC": 5283,
      "ActiParamsForm": 5284,
      "ActiPlanningParamEcranForm": 5285,
      "TESTFONCTIONNEL": 5286,
      "DebugTestFonctionnel": 5287,
      "AnalyseWFController": 5288,
      "TableauGridForm": 5289,
      "DossiersForm": 5290,
      "TestEnvoiMFSForm": 5291,
      "CasTestExecMotif": 5292,
      "PrepRemPrelevManForm": 5293,
      "EditBonLivForm": 5294,
      "COMMANDESFACTURES": 5295,
      "CommandeTypeForm": 5296,
      "AnalogicDomaineFormController": 5297,
      "BASCULE": 5298,
      "unionsPerio": 5299,
      "ParamTablesIndexFo": 5300,
      "ParamEditionBrute": 5301,
      "ParamAGForm": 5302,
      "ParamsInfocWebLaunchForm": 5303,
      "CDELIGNEGOCE": 5304,
      "EditFactureHtmlForm": 5305,
      "TABLEBASE": 5306,
      "blocagePourRetard": 5307,
      "prelevement": 5308,
      "DOSSIERS": 5309,
      "CdeLigForm": 5310,
      "cdetyp": 5311,
      "MailAbonnementForm": 5312,
      "ComptaRemPrelevForm": 5313,
      "TarBaseVTForm": 5314,
      "PosteCliForm": 5315,
      "ReeditBonLivParamActionForm": 5316,
      "ModifEcheancierForm": 5317,
      "ModifQteVC": 5318,
      "ConsoleLuceneController": 5319,
      "TransfertPrelevSepaForm": 5320,
      "IntegrationEcritNdfForm": 5321,
      "PlanningSyncProfileAssignationController": 5322,
      "CatalogueReunionsPerio": 5323,
      "CorrespContQualForm": 5324,
      "CalculatorVC": 5325,
      "GestionnaireFichiersForm": 5326,
      "GareAeroportForm": 5327,
      "etatsparametres": 5328,
      "SaisieRemManuelleForm": 5329,
      "DebugTestFonctionnelForm": 5330,
      "ParamTablesIndexForDeleteForm": 5331
    },
    "merges": [
      [
        "Ġ",
        "d"
      ],
      [
        "u",
        "n"
      ],
      [
        "o",
        "n"
      ],
      [
        "Ã",
        "©"
      ],
      [
        "t",
        "i"
      ],
      [
        "ti",
        "on"
      ],
      [
        "a",
        "n"
      ],
      [
        "l",
        "e"
      ],
      [
        "Ã©",
        "c"
      ],
      [
        "o",
        "u"
      ],
      [
        "c",
        "h"
      ],
      [
        "un",
        "e"
      ],
      [
        "l",
        "o"
      ],
      [
        "Ġ",
        "b"
      ],
      [
        "lo",
        "g"
      ],
      [
        "u",
        "e"
      ],
      [
        "c",
        "tion"
      ],
      [
        "E",
        "x"
      ],
      [
        "ou",
        "t"
      ],
      [
        "u",
        "tion"
      ],
      [
        "Ã©c",
        "ution"
      ],
      [
        "Ġb",
        "out"
      ],
      [
        "Ex",
        "Ã©cution"
      ],
      [
        "Ġbout",
        "on"
      ],
      [
        "ch",
        "a"
      ],
      [
        "a",
        "i"
      ],
      [
        "m",
        "e"
      ],
      [
        "r",
        "e"
      ],
      [
        "le",
        "ction"
      ],
      [
        "Ã©",
        "lection"
      ],
      [
        "i",
        "e"
      ],
      [
        "Ġ",
        "un"
      ],
      [
        "S",
        "Ã©lection"
      ],
      [
        "$",
        ","
      ],
      [
        "g",
        "e"
      ],
      [
        "r",
        "an"
      ],
      [
        "Ġ",
        "Ã©c"
      ],
      [
        "ĠÃ©c",
        "ran"
      ],
      [
        "a",
        "log"
      ],
      [
        "i",
        "alog"
      ],
      [
        "Ġd",
        "ialog"
      ],
      [
        "Ġdialog",
        "ue"
      ],
      [
        "i",
        "c"
      ],
      [
        "ai",
        "s"
      ],
      [
        "ais",
        "ie"
      ],
      [
        "Ġd",
        "an"
      ],
      [
        "Ġdan",
        "s"
      ],
      [
        "m",
        "p"
      ],
      [
        "S",
        "aisie"
      ],
      [
        "e",
        "r"
      ],
      [
        "i",
        "n"
      ],
      [
        "Ġ",
        "cha"
      ],
      [
        "Ġcha",
        "mp"
      ],
      [
        "f",
        "i"
      ],
      [
        "n",
        "t"
      ],
      [
        "f",
        "o"
      ],
      [
        "r",
        "i"
      ],
      [
        "A",
        "f"
      ],
      [
        "cha",
        "ge"
      ],
      [
        "fi",
        "chage"
      ],
      [
        "Af",
        "fichage"
      ],
      [
        "l",
        "le"
      ],
      [
        "t",
        "r"
      ],
      [
        "in",
        "fo"
      ],
      [
        "c",
        "e"
      ],
      [
        "me",
        "nt"
      ],
      [
        "log",
        "ic"
      ],
      [
        "info",
        "logic"
      ],
      [
        "Ġ",
        "s"
      ],
      [
        "t",
        "u"
      ],
      [
        "tu",
        "re"
      ],
      [
        "an",
        "ce"
      ],
      [
        "on",
        "tr"
      ],
      [
        "F",
        "er"
      ],
      [
        "me",
        "ture"
      ],
      [
        "Fer",
        "meture"
      ],
      [
        ")",
        ","
      ],
      [
        "o",
        "lle"
      ],
      [
        "ontr",
        "olle"
      ],
      [
        "ontrolle",
        "r"
      ],
      [
        "L",
        "ance"
      ],
      [
        "Lance",
        "ment"
      ],
      [
        "q",
        "ue"
      ],
      [
        "Ġ",
        "g"
      ],
      [
        "ri",
        "que"
      ],
      [
        "s",
        "t"
      ],
      [
        "r",
        "m"
      ],
      [
        "ou",
        "r"
      ],
      [
        "u",
        "r"
      ],
      [
        "Ġ",
        "a"
      ],
      [
        "l",
        "ic"
      ],
      [
        "Ġs",
        "ur"
      ],
      [
        "C",
        "ontroller"
      ],
      [
        "a",
        "c"
      ],
      [
        "b",
        "le"
      ],
      [
        "r",
        "Ã©"
      ],
      [
        "Ġa",
        "ction"
      ],
      [
        "n",
        "Ã©"
      ],
      [
        "Ã©",
        "nÃ©"
      ],
      [
        "Ġg",
        "Ã©nÃ©"
      ],
      [
        "ĠgÃ©nÃ©",
        "rique"
      ],
      [
        "o",
        "d"
      ],
      [
        "m",
        "od"
      ],
      [
        "g",
        "le"
      ],
      [
        "â",
        "Ģ"
      ],
      [
        "Ġ",
        "on"
      ],
      [
        "gle",
        "t"
      ],
      [
        "âĢ",
        "Ļ"
      ],
      [
        "Ġon",
        "glet"
      ],
      [
        "a",
        "ge"
      ],
      [
        "o",
        "re"
      ],
      [
        "T",
        "E"
      ],
      [
        "Ġd",
        "e"
      ],
      [
        "Ġ",
        "t"
      ],
      [
        "u",
        "le"
      ],
      [
        "mod",
        "ule"
      ],
      [
        "module",
        "s"
      ],
      [
        "ac",
        "c"
      ],
      [
        "I",
        "N"
      ],
      [
        "a",
        "tion"
      ],
      [
        "c",
        "ore"
      ],
      [
        "c",
        "i"
      ],
      [
        "R",
        "acc"
      ],
      [
        "our",
        "ci"
      ],
      [
        "Racc",
        "ourci"
      ],
      [
        ")",
        "<"
      ],
      [
        "ch",
        "e"
      ],
      [
        "D",
        "E"
      ],
      [
        "C",
        "rÃ©"
      ],
      [
        "CrÃ©",
        "ation"
      ],
      [
        "l",
        "an"
      ],
      [
        "C",
        "h"
      ],
      [
        "F",
        "o"
      ],
      [
        "Fo",
        "rm"
      ],
      [
        ">",
        ","
      ],
      [
        "R",
        "e"
      ],
      [
        "ai",
        "n"
      ],
      [
        "Ch",
        "ain"
      ],
      [
        "Chain",
        "age"
      ],
      [
        "D",
        "ou"
      ],
      [
        "c",
        "lic"
      ],
      [
        "Dou",
        "ble"
      ],
      [
        "a",
        "t"
      ],
      [
        "F",
        "i"
      ],
      [
        "Re",
        "t"
      ],
      [
        "Ret",
        "our"
      ],
      [
        "C",
        "lic"
      ],
      [
        "Ġ",
        "une"
      ],
      [
        "M",
        "A"
      ],
      [
        "V",
        "T"
      ],
      [
        "o",
        "r"
      ],
      [
        "u",
        "i"
      ],
      [
        "C",
        "O"
      ],
      [
        "g",
        "ui"
      ],
      [
        "c",
        "ontroller"
      ],
      [
        "controller",
        "s"
      ],
      [
        "a",
        "st"
      ],
      [
        "o",
        "ast"
      ],
      [
        "Ġt",
        "oast"
      ],
      [
        "1",
        "0"
      ],
      [
        "S",
        "T"
      ],
      [
        "ch",
        "er"
      ],
      [
        "cher",
        "che"
      ],
      [
        "i",
        "st"
      ],
      [
        "h",
        "ist"
      ],
      [
        "o",
        "rique"
      ],
      [
        "hist",
        "orique"
      ],
      [
        "Ġ",
        "re"
      ],
      [
        "ri",
        "lle"
      ],
      [
        "Ġg",
        "rille"
      ],
      [
        "Ġre",
        "cherche"
      ],
      [
        "a",
        "ble"
      ],
      [
        "u",
        "l"
      ],
      [
        "Ġt",
        "able"
      ],
      [
        "A",
        "C"
      ],
      [
        "1",
        "5"
      ],
      [
        "e",
        "n"
      ],
      [
        "O",
        "R"
      ],
      [
        "t",
        "at"
      ],
      [
        "MA",
        "IN"
      ],
      [
        "ai",
        "re"
      ],
      [
        "n",
        "in"
      ],
      [
        "lan",
        "nin"
      ],
      [
        "lannin",
        "g"
      ],
      [
        "t",
        "e"
      ],
      [
        "fo",
        "rm"
      ],
      [
        "C",
        "R"
      ],
      [
        "MAIN",
        "T"
      ],
      [
        "2",
        "0"
      ],
      [
        "G",
        "P"
      ],
      [
        "E",
        "nt"
      ],
      [
        "ul",
        "aire"
      ],
      [
        "Ġ",
        "en"
      ],
      [
        "Ġ",
        "form"
      ],
      [
        "Ġs",
        "aisie"
      ],
      [
        "rÃ©",
        "e"
      ],
      [
        "Ent",
        "rÃ©e"
      ],
      [
        "Ġform",
        "ulaire"
      ],
      [
        "Ġ",
        "T"
      ],
      [
        "tr",
        "age"
      ],
      [
        "l",
        "trage"
      ],
      [
        "Ġ",
        "/"
      ],
      [
        "Fi",
        "ltrage"
      ],
      [
        "ĠT",
        "ri"
      ],
      [
        "2",
        "5"
      ],
      [
        "CR",
        "M"
      ],
      [
        "l",
        "a"
      ],
      [
        "c",
        "rm"
      ],
      [
        "3",
        "0"
      ],
      [
        "DE",
        "F"
      ],
      [
        "D",
        "I"
      ],
      [
        "f",
        "la"
      ],
      [
        "Ġ",
        "fla"
      ],
      [
        "Ġfla",
        "g"
      ],
      [
        "k",
        "Controller"
      ],
      [
        "ie",
        "r"
      ],
      [
        "ch",
        "ier"
      ],
      [
        "l",
        "Ã©"
      ],
      [
        "Ġ",
        "Ã©"
      ],
      [
        "lÃ©",
        "ment"
      ],
      [
        "ĠÃ©",
        "lÃ©ment"
      ],
      [
        "B",
        "lan"
      ],
      [
        "Blan",
        "kController"
      ],
      [
        "E",
        "DI"
      ],
      [
        "3",
        "5"
      ],
      [
        "E",
        "S"
      ],
      [
        "4",
        "0"
      ],
      [
        "4",
        "5"
      ],
      [
        "DE",
        "V"
      ],
      [
        "e",
        "st"
      ],
      [
        "I",
        "n"
      ],
      [
        "6",
        "0"
      ],
      [
        "A",
        "T"
      ],
      [
        "a",
        "u"
      ],
      [
        "e",
        "d"
      ],
      [
        "TE",
        "C"
      ],
      [
        "7",
        "0"
      ],
      [
        "6",
        "5"
      ],
      [
        "or",
        "d"
      ],
      [
        "est",
        "ed"
      ],
      [
        "7",
        "5"
      ],
      [
        "8",
        "0"
      ],
      [
        ">",
        "$"
      ],
      [
        "L",
        "A"
      ],
      [
        "O",
        "T"
      ],
      [
        "8",
        "5"
      ],
      [
        "g",
        "a"
      ],
      [
        "or",
        "ga"
      ],
      [
        "Ġs",
        "tat"
      ],
      [
        "9",
        "0"
      ],
      [
        "9",
        "5"
      ],
      [
        "A",
        "L"
      ],
      [
        "A",
        "c"
      ],
      [
        "Ġb",
        "ord"
      ],
      [
        "Ġtable",
        "au"
      ],
      [
        "ac",
        "ti"
      ],
      [
        "S",
        "V"
      ],
      [
        "G",
        "ES"
      ],
      [
        "N",
        "N"
      ],
      [
        "TE",
        "S"
      ],
      [
        "T",
        "I"
      ],
      [
        "GES",
        "CO"
      ],
      [
        "C",
        "P"
      ],
      [
        "J",
        "CP"
      ],
      [
        "2",
        "4"
      ],
      [
        "p",
        "lanning"
      ],
      [
        "P",
        "lanning"
      ],
      [
        "Planning",
        "Controller"
      ],
      [
        "T",
        "R"
      ],
      [
        "AC",
        "TI"
      ],
      [
        "V",
        "I"
      ],
      [
        "o",
        "me"
      ],
      [
        "t",
        "Form"
      ],
      [
        "2",
        "3"
      ],
      [
        "D",
        "Ã©"
      ],
      [
        "s",
        "e"
      ],
      [
        "ie",
        "w"
      ],
      [
        "s",
        "Controller"
      ],
      [
        "E",
        "R"
      ],
      [
        "Fi",
        "chier"
      ],
      [
        "n",
        "ested"
      ],
      [
        "p",
        "u"
      ],
      [
        "In",
        "pu"
      ],
      [
        "Fichier",
        "sController"
      ],
      [
        "C",
        "o"
      ],
      [
        "s",
        "Ã©lection"
      ],
      [
        "DÃ©",
        "sÃ©lection"
      ],
      [
        "Inpu",
        "tForm"
      ],
      [
        "A",
        "ction"
      ],
      [
        "0",
        "3"
      ],
      [
        "b",
        "a"
      ],
      [
        "Ac",
        "ti"
      ],
      [
        "P",
        "LA"
      ],
      [
        "IN",
        "G"
      ],
      [
        "NN",
        "ING"
      ],
      [
        "PLA",
        "NNING"
      ],
      [
        "i",
        "l"
      ],
      [
        "ue",
        "il"
      ],
      [
        "ACTI",
        "VI"
      ],
      [
        "ACTIVI",
        "TES"
      ],
      [
        "mp",
        "te"
      ],
      [
        "info",
        "c"
      ],
      [
        "v",
        "i"
      ],
      [
        "CO",
        "M"
      ],
      [
        "0",
        "7"
      ],
      [
        "I",
        "L"
      ],
      [
        "i",
        "f"
      ],
      [
        "n",
        "ce"
      ],
      [
        "b",
        "ore"
      ],
      [
        "r",
        "bore"
      ],
      [
        "s",
        "ce"
      ],
      [
        "Ġa",
        "rbore"
      ],
      [
        "sce",
        "nce"
      ],
      [
        "Ġarbore",
        "scence"
      ],
      [
        "F",
        "B"
      ],
      [
        "FB",
        "Controller"
      ],
      [
        "fi",
        "chier"
      ],
      [
        "ba",
        "se"
      ],
      [
        "fichier",
        "base"
      ],
      [
        "S",
        "tat"
      ],
      [
        "st",
        "at"
      ],
      [
        "mod",
        "if"
      ],
      [
        "Stat",
        "FBController"
      ],
      [
        "stat",
        "modif"
      ],
      [
        "vi",
        "te"
      ],
      [
        "I",
        "C"
      ],
      [
        ")",
        "$"
      ],
      [
        "IN",
        "ST"
      ],
      [
        "E",
        "B"
      ],
      [
        "W",
        "EB"
      ],
      [
        "s",
        "i"
      ],
      [
        "ti",
        "er"
      ],
      [
        "an",
        "tier"
      ],
      [
        "Co",
        "mpte"
      ],
      [
        "In",
        "st"
      ],
      [
        "U",
        "R"
      ],
      [
        "che",
        "c"
      ],
      [
        "O",
        "N"
      ],
      [
        "b",
        "o"
      ],
      [
        "k",
        "bo"
      ],
      [
        "Ġ",
        "chec"
      ],
      [
        "kbo",
        "x"
      ],
      [
        "Ġchec",
        "kbox"
      ],
      [
        "1",
        "1"
      ],
      [
        "INST",
        "AL"
      ],
      [
        "0",
        "0"
      ],
      [
        "TR",
        "A"
      ],
      [
        "ST",
        "D"
      ],
      [
        "d",
        "o"
      ],
      [
        "W",
        "in"
      ],
      [
        "do",
        "w"
      ],
      [
        "Win",
        "dow"
      ],
      [
        "V",
        "iew"
      ],
      [
        "N",
        "ested"
      ],
      [
        "Nested",
        "Window"
      ],
      [
        "I",
        "ER"
      ],
      [
        "5",
        "5"
      ],
      [
        "F",
        "IC"
      ],
      [
        "FIC",
        "H"
      ],
      [
        "FICH",
        "IER"
      ],
      [
        "N",
        "O"
      ],
      [
        "V",
        "A"
      ],
      [
        "e",
        "l"
      ],
      [
        "P",
        "R"
      ],
      [
        "TRA",
        "VA"
      ],
      [
        "FICHIER",
        "TRAVA"
      ],
      [
        "FICHIERTRAVA",
        "IL"
      ],
      [
        "InputForm",
        "NestedWindow"
      ],
      [
        "Inst",
        "ance"
      ],
      [
        "Instance",
        "Form"
      ],
      [
        "O",
        "P"
      ],
      [
        "re",
        "ur"
      ],
      [
        "Ġ",
        "er"
      ],
      [
        "Ġer",
        "reur"
      ],
      [
        "1",
        "2"
      ],
      [
        "H",
        "ome"
      ],
      [
        "Home",
        "View"
      ],
      [
        "C",
        "U"
      ],
      [
        "TE",
        "UR"
      ],
      [
        "LA",
        "TEUR"
      ],
      [
        "INSTAL",
        "LATEUR"
      ],
      [
        "COM",
        "P"
      ],
      [
        "COMP",
        "TE"
      ],
      [
        "A",
        "R"
      ],
      [
        "n",
        "d"
      ],
      [
        "nd",
        "u"
      ],
      [
        "TE",
        "L"
      ],
      [
        "TE",
        "ST"
      ],
      [
        "P",
        "AR"
      ],
      [
        "A",
        "M"
      ],
      [
        "PAR",
        "AM"
      ],
      [
        "acc",
        "ueil"
      ],
      [
        "1",
        "3"
      ],
      [
        "D",
        "e"
      ],
      [
        "I",
        "ON"
      ],
      [
        "c",
        "ueil"
      ],
      [
        "Ac",
        "cueil"
      ],
      [
        "E",
        "M"
      ],
      [
        "DEV",
        "OP"
      ],
      [
        "DEVOP",
        "S"
      ],
      [
        "h",
        "ome"
      ],
      [
        "v",
        "iew"
      ],
      [
        "i",
        "s"
      ],
      [
        "Accueil",
        "Controller"
      ],
      [
        "home",
        "view"
      ],
      [
        "O",
        "B"
      ],
      [
        "InputForm",
        "HomeView"
      ],
      [
        "d",
        "e"
      ],
      [
        "O",
        "L"
      ],
      [
        "Fi",
        "che"
      ],
      [
        "S",
        "E"
      ],
      [
        "Compte",
        "Form"
      ],
      [
        "1",
        "4"
      ],
      [
        "I",
        "MA"
      ],
      [
        "M",
        "IN"
      ],
      [
        "TEL",
        "EM"
      ],
      [
        "IMA",
        "L"
      ],
      [
        "MIN",
        "IMAL"
      ],
      [
        "CO",
        "OL"
      ],
      [
        "AL",
        "COOL"
      ],
      [
        "5",
        "0"
      ],
      [
        "acti",
        "vite"
      ],
      [
        "m",
        "an"
      ],
      [
        "man",
        "de"
      ],
      [
        "o",
        "te"
      ],
      [
        "N",
        "ote"
      ],
      [
        "c",
        "o"
      ],
      [
        "fi",
        "che"
      ],
      [
        "E",
        "T"
      ],
      [
        "Acti",
        "vite"
      ],
      [
        "Acti",
        "Fiche"
      ],
      [
        "fiche",
        "activite"
      ],
      [
        "Activite",
        "Controller"
      ],
      [
        "ActiFiche",
        "ActiviteController"
      ],
      [
        "ER",
        "S"
      ],
      [
        "AC",
        "E"
      ],
      [
        "TR",
        "ACE"
      ],
      [
        "e",
        "s"
      ],
      [
        "si",
        "on"
      ],
      [
        "B",
        "U"
      ],
      [
        "BU",
        "G"
      ],
      [
        "A",
        "N"
      ],
      [
        "p",
        "an"
      ],
      [
        "Ġ",
        "pan"
      ],
      [
        "Ġpan",
        "el"
      ],
      [
        "A",
        "n"
      ],
      [
        "M",
        "ES"
      ],
      [
        "OR",
        "Form"
      ],
      [
        "De",
        "mande"
      ],
      [
        "CO",
        "N"
      ],
      [
        "G",
        "A"
      ],
      [
        "OR",
        "GA"
      ],
      [
        "Ch",
        "antier"
      ],
      [
        "1",
        "6"
      ],
      [
        "TEST",
        "OB"
      ],
      [
        "TESTOB",
        "S"
      ],
      [
        "IN",
        "F"
      ],
      [
        "ch",
        "antier"
      ],
      [
        "E",
        "IL"
      ],
      [
        "AC",
        "CU"
      ],
      [
        "ACCU",
        "EIL"
      ],
      [
        "T",
        "AC"
      ],
      [
        "1",
        "7"
      ],
      [
        "H",
        "E"
      ],
      [
        "INF",
        "O"
      ],
      [
        "PR",
        "O"
      ],
      [
        "D",
        "is"
      ],
      [
        "m",
        "ul"
      ],
      [
        "si",
        "mul"
      ],
      [
        "Dis",
        "simul"
      ],
      [
        "Dissimul",
        "ation"
      ],
      [
        "D",
        "B"
      ],
      [
        "a",
        "l"
      ],
      [
        "1",
        "8"
      ],
      [
        "er",
        "v"
      ],
      [
        "Co",
        "m"
      ],
      [
        "TAC",
        "HE"
      ],
      [
        "10",
        "0"
      ],
      [
        "DE",
        "MA"
      ],
      [
        "N",
        "DE"
      ],
      [
        "NO",
        "TE"
      ],
      [
        "ET",
        "AT"
      ],
      [
        "R",
        "E"
      ],
      [
        "NO",
        "TES"
      ],
      [
        "O",
        "C"
      ],
      [
        "E",
        "L"
      ],
      [
        "Chantier",
        "Form"
      ],
      [
        "V",
        "er"
      ],
      [
        "sion",
        "Form"
      ],
      [
        "V",
        "ERS"
      ],
      [
        "Note",
        "Ver"
      ],
      [
        "NOTE",
        "VERS"
      ],
      [
        "NoteVer",
        "sionForm"
      ],
      [
        "NOTEVERS",
        "ION"
      ],
      [
        "1",
        "9"
      ],
      [
        "1",
        "15"
      ],
      [
        "1",
        "20"
      ],
      [
        "D",
        "OC"
      ],
      [
        "DEMA",
        "NDE"
      ],
      [
        "v",
        "e"
      ],
      [
        "co",
        "mpte"
      ],
      [
        "re",
        "ndu"
      ],
      [
        "Re",
        "ndu"
      ],
      [
        "Compte",
        "Rendu"
      ],
      [
        "compte",
        "rendu"
      ],
      [
        "CompteRendu",
        "Form"
      ],
      [
        "1",
        "25"
      ],
      [
        "Demande",
        "Com"
      ],
      [
        "DEMANDE",
        "COM"
      ],
      [
        "DemandeCom",
        "ORForm"
      ],
      [
        "nt",
        "es"
      ],
      [
        "ve",
        "ntes"
      ],
      [
        "1",
        "30"
      ],
      [
        "1",
        "35"
      ],
      [
        "1",
        "40"
      ],
      [
        "10",
        "5"
      ],
      [
        "p",
        "p"
      ],
      [
        "1",
        "45"
      ],
      [
        "r",
        "o"
      ],
      [
        "1",
        "60"
      ],
      [
        "00",
        "1"
      ],
      [
        "AN",
        "AL"
      ],
      [
        "1",
        "65"
      ],
      [
        "1",
        "70"
      ],
      [
        "1",
        "75"
      ],
      [
        "1",
        "80"
      ],
      [
        "C",
        "CR"
      ],
      [
        "s",
        "aisie"
      ],
      [
        "E",
        "N"
      ],
      [
        "1",
        "85"
      ],
      [
        "AT",
        "ION"
      ],
      [
        "15",
        "0"
      ],
      [
        "ontr",
        "at"
      ],
      [
        "1",
        "90"
      ],
      [
        "Y",
        "SE"
      ],
      [
        "ANAL",
        "YSE"
      ],
      [
        "y",
        "se"
      ],
      [
        "al",
        "yse"
      ],
      [
        "E",
        "V"
      ],
      [
        "An",
        "alyse"
      ],
      [
        "ai",
        "nt"
      ],
      [
        "2",
        "2"
      ],
      [
        "1",
        "95"
      ],
      [
        "s",
        "Form"
      ],
      [
        "1",
        "10"
      ],
      [
        "Saisie",
        "Controller"
      ],
      [
        "Analyse",
        "SaisieController"
      ],
      [
        "PRO",
        "J"
      ],
      [
        "P",
        "ro"
      ],
      [
        "SE",
        "CU"
      ],
      [
        "I",
        "RE"
      ],
      [
        "M",
        "T"
      ],
      [
        "A",
        "pp"
      ],
      [
        "App",
        "el"
      ],
      [
        "PR",
        "EV"
      ],
      [
        "I",
        "nt"
      ],
      [
        "20",
        "0"
      ],
      [
        "able",
        "au"
      ],
      [
        "G",
        "L"
      ],
      [
        "15",
        "5"
      ],
      [
        "Acti",
        "PlanningController"
      ],
      [
        "m",
        "a"
      ],
      [
        "n",
        "e"
      ],
      [
        "a",
        "v"
      ],
      [
        "g",
        "lo"
      ],
      [
        "ba",
        "l"
      ],
      [
        "glo",
        "bal"
      ],
      [
        "ai",
        "l"
      ],
      [
        "Appel",
        "N"
      ],
      [
        "A",
        "DEV"
      ],
      [
        "I",
        "ADEV"
      ],
      [
        "Int",
        "erv"
      ],
      [
        "P",
        "O"
      ],
      [
        "I",
        "S"
      ],
      [
        "DE",
        "M"
      ],
      [
        "av",
        "ail"
      ],
      [
        "2",
        "70"
      ],
      [
        "2",
        "25"
      ],
      [
        "A",
        "IRE"
      ],
      [
        "en",
        "tion"
      ],
      [
        "e",
        "t"
      ],
      [
        "Pro",
        "j"
      ],
      [
        "2",
        "30"
      ],
      [
        "20",
        "5"
      ],
      [
        "O",
        "u"
      ],
      [
        "v",
        "er"
      ],
      [
        "Ou",
        "ver"
      ],
      [
        "Ouver",
        "ture"
      ],
      [
        "2",
        "35"
      ],
      [
        "V",
        "AL"
      ],
      [
        "Proj",
        "et"
      ],
      [
        "2",
        "40"
      ],
      [
        "TR",
        "AT"
      ],
      [
        "CON",
        "TRAT"
      ],
      [
        "2",
        "45"
      ],
      [
        "aire",
        "Controller"
      ],
      [
        "2",
        "60"
      ],
      [
        "n",
        "u"
      ],
      [
        "2",
        "65"
      ],
      [
        "C",
        "E"
      ],
      [
        "P",
        "er"
      ],
      [
        "s",
        "on"
      ],
      [
        "Per",
        "son"
      ],
      [
        "d",
        "i"
      ],
      [
        "00",
        "5"
      ],
      [
        "F",
        "AC"
      ],
      [
        "2",
        "10"
      ],
      [
        "A",
        "NN"
      ],
      [
        "2",
        "6"
      ],
      [
        "2",
        "15"
      ],
      [
        "U",
        "AIRE"
      ],
      [
        "An",
        "nu"
      ],
      [
        "ANN",
        "UAIRE"
      ],
      [
        "Annu",
        "aireController"
      ],
      [
        "2",
        "20"
      ],
      [
        "25",
        "0"
      ],
      [
        "2",
        "75"
      ],
      [
        "2",
        "85"
      ],
      [
        "2",
        "80"
      ],
      [
        "L",
        "I"
      ],
      [
        "AN",
        "CE"
      ],
      [
        "N",
        "ANCE"
      ],
      [
        "TE",
        "NANCE"
      ],
      [
        "MAIN",
        "TENANCE"
      ],
      [
        "Person",
        "ne"
      ],
      [
        "2",
        "90"
      ],
      [
        "e",
        "c"
      ],
      [
        "G",
        "M"
      ],
      [
        "O",
        "NN"
      ],
      [
        "g",
        "ma"
      ],
      [
        "gma",
        "o"
      ],
      [
        "2",
        "95"
      ],
      [
        "CON",
        "F"
      ],
      [
        "25",
        "5"
      ],
      [
        "DEM",
        "TEST"
      ],
      [
        "M",
        "N"
      ],
      [
        "MN",
        "G"
      ],
      [
        "DEV",
        "IS"
      ],
      [
        "30",
        "0"
      ],
      [
        "2",
        "7"
      ],
      [
        "Note",
        "s"
      ],
      [
        "S",
        "U"
      ],
      [
        "d",
        "is"
      ],
      [
        "p",
        "at"
      ],
      [
        "dis",
        "pat"
      ],
      [
        "dispat",
        "ch"
      ],
      [
        "I",
        "VI"
      ],
      [
        "SU",
        "IVI"
      ],
      [
        "3",
        "40"
      ],
      [
        "3",
        "35"
      ],
      [
        "MA",
        "J"
      ],
      [
        "3",
        "45"
      ],
      [
        "L",
        "ES"
      ],
      [
        "M",
        "U"
      ],
      [
        "30",
        "5"
      ],
      [
        "C",
        "LI"
      ],
      [
        "EN",
        "T"
      ],
      [
        "CLI",
        "ENT"
      ],
      [
        "3",
        "10"
      ],
      [
        "a",
        "che"
      ],
      [
        "l",
        "ie"
      ],
      [
        "lie",
        "nt"
      ],
      [
        "3",
        "60"
      ],
      [
        "3",
        "15"
      ],
      [
        "3",
        "20"
      ],
      [
        "3",
        "65"
      ],
      [
        "3",
        "70"
      ],
      [
        "3",
        "25"
      ],
      [
        "D",
        "P"
      ],
      [
        "P",
        "DP"
      ],
      [
        "3",
        "30"
      ],
      [
        "ONN",
        "EL"
      ],
      [
        "P",
        "ERS"
      ],
      [
        "PERS",
        "ONNEL"
      ],
      [
        "lle",
        "sForm"
      ],
      [
        "Personne",
        "llesForm"
      ],
      [
        "Notes",
        "PersonnellesForm"
      ],
      [
        "PERSONNEL",
        "LES"
      ],
      [
        "2",
        "8"
      ],
      [
        "Q",
        "U"
      ],
      [
        "3",
        "80"
      ],
      [
        "3",
        "75"
      ],
      [
        "G",
        "IC"
      ],
      [
        "O",
        "GIC"
      ],
      [
        "PROJ",
        "ET"
      ],
      [
        "TEC",
        "PREV"
      ],
      [
        "M",
        "OB"
      ],
      [
        "MOB",
        "I"
      ],
      [
        "3",
        "85"
      ],
      [
        "35",
        "0"
      ],
      [
        "3",
        "90"
      ],
      [
        "3",
        "95"
      ],
      [
        "un",
        "ch"
      ],
      [
        "VAL",
        "FAC"
      ],
      [
        "Projet",
        "ORForm"
      ],
      [
        "35",
        "5"
      ],
      [
        "Ġs",
        "es"
      ],
      [
        "Ġses",
        "sion"
      ],
      [
        "N",
        "IC"
      ],
      [
        "COM",
        "MU"
      ],
      [
        "NIC",
        "ATION"
      ],
      [
        "COMMU",
        "NICATION"
      ],
      [
        "co",
        "m"
      ],
      [
        "40",
        "0"
      ],
      [
        "2",
        "9"
      ],
      [
        "4",
        "10"
      ],
      [
        "c",
        "ontrat"
      ],
      [
        "4",
        "15"
      ],
      [
        "4",
        "45"
      ],
      [
        "U",
        "S"
      ],
      [
        "4",
        "20"
      ],
      [
        "T",
        "r"
      ],
      [
        "4",
        "25"
      ],
      [
        "4",
        "40"
      ],
      [
        "4",
        "60"
      ],
      [
        "4",
        "35"
      ],
      [
        "s",
        "m"
      ],
      [
        "C",
        "ontrat"
      ],
      [
        "M",
        "aint"
      ],
      [
        "Contrat",
        "Maint"
      ],
      [
        "4",
        "30"
      ],
      [
        "CONTRAT",
        "MAINT"
      ],
      [
        "contrat",
        "sm"
      ],
      [
        "contratsm",
        "aint"
      ],
      [
        "ContratMaint",
        "Form"
      ],
      [
        "4",
        "65"
      ],
      [
        "f",
        "r"
      ],
      [
        "c",
        "lient"
      ],
      [
        "4",
        "70"
      ],
      [
        "4",
        "75"
      ],
      [
        "40",
        "5"
      ],
      [
        "4",
        "80"
      ],
      [
        "4",
        "85"
      ],
      [
        "on",
        "Tr"
      ],
      [
        "onTr",
        "avail"
      ],
      [
        "4",
        "90"
      ],
      [
        "4",
        "95"
      ],
      [
        "PO",
        "ORGA"
      ],
      [
        "TI",
        "ON"
      ],
      [
        "QU",
        "AL"
      ],
      [
        "in",
        "t"
      ],
      [
        "45",
        "0"
      ],
      [
        "m",
        "un"
      ],
      [
        "com",
        "mun"
      ],
      [
        "45",
        "5"
      ],
      [
        "b",
        "ord"
      ],
      [
        "t",
        "ableau"
      ],
      [
        "tableau",
        "bord"
      ],
      [
        "L",
        "O"
      ],
      [
        "T",
        "ableau"
      ],
      [
        "B",
        "ord"
      ],
      [
        "Tableau",
        "Bord"
      ],
      [
        "L",
        "a"
      ],
      [
        "T",
        "O"
      ],
      [
        "S",
        "I"
      ],
      [
        "Demande",
        "Interv"
      ],
      [
        "DemandeInterv",
        "Form"
      ],
      [
        "Interv",
        "ention"
      ],
      [
        "5",
        "00"
      ],
      [
        "erv",
        "ention"
      ],
      [
        "int",
        "ervention"
      ],
      [
        "form",
        "s"
      ],
      [
        "TableauBord",
        "Controller"
      ],
      [
        "re",
        "fo"
      ],
      [
        "Fi",
        "refo"
      ],
      [
        "Firefo",
        "x"
      ],
      [
        "TE",
        "R"
      ],
      [
        "IN",
        "TER"
      ],
      [
        "c",
        "u"
      ],
      [
        "TEC",
        "H"
      ],
      [
        "50",
        "5"
      ],
      [
        "5",
        "10"
      ],
      [
        "6",
        "10"
      ],
      [
        "5",
        "20"
      ],
      [
        "5",
        "15"
      ],
      [
        "5",
        "25"
      ],
      [
        "6",
        "15"
      ],
      [
        "ment",
        "Controller"
      ],
      [
        "6",
        "20"
      ],
      [
        "5",
        "40"
      ],
      [
        "5",
        "70"
      ],
      [
        "5",
        "30"
      ],
      [
        "QUAL",
        "I"
      ],
      [
        "6",
        "25"
      ],
      [
        "55",
        "0"
      ],
      [
        "5",
        "35"
      ],
      [
        "5",
        "60"
      ],
      [
        "I",
        "EL"
      ],
      [
        "TEL",
        "OGIC"
      ],
      [
        "QUALI",
        "TELOGIC"
      ],
      [
        "QUALITELOGIC",
        "IEL"
      ],
      [
        "D",
        "SI"
      ],
      [
        "6",
        "30"
      ],
      [
        "6",
        "35"
      ],
      [
        "5",
        "65"
      ],
      [
        "5",
        "80"
      ],
      [
        "55",
        "5"
      ],
      [
        "6",
        "70"
      ],
      [
        "D",
        "o"
      ],
      [
        "6",
        "40"
      ],
      [
        "6",
        "60"
      ],
      [
        "5",
        "45"
      ],
      [
        "5",
        "75"
      ],
      [
        "6",
        "45"
      ],
      [
        "5",
        "85"
      ],
      [
        "6",
        "65"
      ],
      [
        "cu",
        "mentController"
      ],
      [
        "Do",
        "cumentController"
      ],
      [
        "AC",
        "C"
      ],
      [
        "6",
        "80"
      ],
      [
        "6",
        "75"
      ],
      [
        "5",
        "90"
      ],
      [
        "G",
        "o"
      ],
      [
        "o",
        "gle"
      ],
      [
        "r",
        "ome"
      ],
      [
        "t",
        "s"
      ],
      [
        "Ġ",
        "Ch"
      ],
      [
        "Go",
        "ogle"
      ],
      [
        "ĠCh",
        "rome"
      ],
      [
        "INSTAL",
        "L"
      ],
      [
        "6",
        "95"
      ],
      [
        "V",
        "EN"
      ],
      [
        "5",
        "95"
      ],
      [
        "6",
        "85"
      ],
      [
        "De",
        "vi"
      ],
      [
        "6",
        "90"
      ],
      [
        "60",
        "0"
      ],
      [
        "Inst",
        "al"
      ],
      [
        "Instal",
        "l"
      ],
      [
        "Chantier",
        "Install"
      ],
      [
        "ChantierInstall",
        "ation"
      ],
      [
        "60",
        "5"
      ],
      [
        "F",
        "OR"
      ],
      [
        "7",
        "10"
      ],
      [
        "Intervention",
        "Controller"
      ],
      [
        "INTER",
        "VEN"
      ],
      [
        "INTERVEN",
        "TION"
      ],
      [
        "7",
        "20"
      ],
      [
        "7",
        "15"
      ],
      [
        "7",
        "25"
      ],
      [
        "7",
        "30"
      ],
      [
        "7",
        "40"
      ],
      [
        "7",
        "35"
      ],
      [
        "65",
        "0"
      ],
      [
        "7",
        "75"
      ],
      [
        "7",
        "45"
      ],
      [
        "7",
        "70"
      ],
      [
        "7",
        "65"
      ],
      [
        "7",
        "80"
      ],
      [
        "C",
        "H"
      ],
      [
        "M",
        "onTravail"
      ],
      [
        "T",
        "ache"
      ],
      [
        "m",
        "ontr"
      ],
      [
        "MonTravail",
        "Controller"
      ],
      [
        "montr",
        "avail"
      ],
      [
        "P",
        "L"
      ],
      [
        "Ex",
        "ec"
      ],
      [
        "7",
        "60"
      ],
      [
        "7",
        "95"
      ],
      [
        "e",
        "x"
      ],
      [
        "7",
        "85"
      ],
      [
        "VT",
        "PREV"
      ],
      [
        "7",
        "90"
      ],
      [
        "65",
        "5"
      ],
      [
        "8",
        "10"
      ],
      [
        "8",
        "25"
      ],
      [
        "t",
        "ac"
      ],
      [
        "8",
        "15"
      ],
      [
        "8",
        "20"
      ],
      [
        "70",
        "0"
      ],
      [
        "INSTALL",
        "ATION"
      ],
      [
        "Exec",
        "Form"
      ],
      [
        "ex",
        "ec"
      ],
      [
        "La",
        "unch"
      ],
      [
        "8",
        "30"
      ],
      [
        "8",
        "35"
      ],
      [
        "8",
        "40"
      ],
      [
        "8",
        "45"
      ],
      [
        "70",
        "5"
      ],
      [
        "Devi",
        "sForm"
      ],
      [
        "8",
        "60"
      ],
      [
        "8",
        "75"
      ],
      [
        "e",
        "b"
      ],
      [
        "8",
        "80"
      ],
      [
        "8",
        "65"
      ],
      [
        "8",
        "70"
      ],
      [
        "8",
        "95"
      ],
      [
        "C",
        "on"
      ],
      [
        "PL",
        "M"
      ],
      [
        "8",
        "85"
      ],
      [
        "8",
        "90"
      ],
      [
        "75",
        "0"
      ],
      [
        "G",
        "E"
      ],
      [
        "9",
        "10"
      ],
      [
        "9",
        "25"
      ],
      [
        "75",
        "5"
      ],
      [
        "9",
        "20"
      ],
      [
        "9",
        "35"
      ],
      [
        "9",
        "30"
      ],
      [
        "9",
        "15"
      ],
      [
        "9",
        "40"
      ],
      [
        "80",
        "0"
      ],
      [
        "T",
        "L"
      ],
      [
        "te",
        "Form"
      ],
      [
        "9",
        "75"
      ],
      [
        "80",
        "5"
      ],
      [
        "9",
        "45"
      ],
      [
        "9",
        "65"
      ],
      [
        "9",
        "60"
      ],
      [
        "9",
        "70"
      ],
      [
        "E",
        "CO"
      ],
      [
        "OP",
        "ECO"
      ],
      [
        "9",
        "80"
      ],
      [
        "85",
        "0"
      ],
      [
        "ER",
        "C"
      ],
      [
        "9",
        "95"
      ],
      [
        "9",
        "85"
      ],
      [
        "9",
        "90"
      ],
      [
        "85",
        "5"
      ],
      [
        "tac",
        "tForm"
      ],
      [
        "Con",
        "tactForm"
      ],
      [
        "t",
        "ache"
      ],
      [
        "C",
        "a"
      ],
      [
        "US",
        "L"
      ],
      [
        "a",
        "cha"
      ],
      [
        "acha",
        "ts"
      ],
      [
        "90",
        "5"
      ],
      [
        "TO",
        "US"
      ],
      [
        "ACC",
        "TOUS"
      ],
      [
        "90",
        "0"
      ],
      [
        "TL",
        "P"
      ],
      [
        "95",
        "0"
      ],
      [
        "a",
        "r"
      ],
      [
        "S",
        "PR"
      ],
      [
        "T",
        "SPR"
      ],
      [
        "CON",
        "TAC"
      ],
      [
        "CONTAC",
        "TSPR"
      ],
      [
        "95",
        "5"
      ],
      [
        "M",
        "EM"
      ],
      [
        "M",
        "O"
      ],
      [
        "la",
        "unch"
      ],
      [
        "Launch",
        "HomeView"
      ],
      [
        "GES",
        "PRO"
      ],
      [
        "10",
        "00"
      ],
      [
        "Ca",
        "s"
      ],
      [
        "T",
        "est"
      ],
      [
        "Cas",
        "Test"
      ],
      [
        "c",
        "ast"
      ],
      [
        "cast",
        "est"
      ],
      [
        "10",
        "10"
      ],
      [
        "100",
        "5"
      ],
      [
        "t",
        "a"
      ],
      [
        "10",
        "20"
      ],
      [
        "V",
        "C"
      ],
      [
        "10",
        "25"
      ],
      [
        "10",
        "15"
      ],
      [
        "W",
        "F"
      ],
      [
        "VAL",
        "WF"
      ],
      [
        "W",
        "eb"
      ],
      [
        "P",
        "lan"
      ],
      [
        "10",
        "30"
      ],
      [
        "en",
        "ce"
      ],
      [
        "10",
        "35"
      ],
      [
        "10",
        "40"
      ],
      [
        "D",
        "at"
      ],
      [
        "e",
        "ur"
      ],
      [
        "10",
        "50"
      ],
      [
        "10",
        "45"
      ],
      [
        "10",
        "65"
      ],
      [
        "10",
        "60"
      ],
      [
        "S",
        "ui"
      ],
      [
        "10",
        "55"
      ],
      [
        "C",
        "M"
      ],
      [
        "10",
        "70"
      ],
      [
        "E",
        "TRA"
      ],
      [
        "PARAM",
        "ETRA"
      ],
      [
        "PARAMETRA",
        "GE"
      ],
      [
        "mp",
        "ta"
      ],
      [
        "10",
        "75"
      ],
      [
        "ac",
        "ture"
      ],
      [
        "10",
        "80"
      ],
      [
        "di",
        "t"
      ],
      [
        "10",
        "85"
      ],
      [
        "10",
        "90"
      ],
      [
        "A",
        "P"
      ],
      [
        "AP",
        "PRO"
      ],
      [
        "1",
        "100"
      ],
      [
        "a",
        "View"
      ],
      [
        "Tache",
        "Dat"
      ],
      [
        "aView",
        "VC"
      ],
      [
        "TacheDat",
        "aViewVC"
      ],
      [
        "11",
        "15"
      ],
      [
        "10",
        "95"
      ],
      [
        "1",
        "105"
      ],
      [
        "11",
        "10"
      ],
      [
        "11",
        "20"
      ],
      [
        "erv",
        "eur"
      ],
      [
        "P",
        "re"
      ],
      [
        "11",
        "25"
      ],
      [
        "11",
        "30"
      ],
      [
        "11",
        "35"
      ],
      [
        "r",
        "r"
      ],
      [
        "11",
        "40"
      ],
      [
        "a",
        "pp"
      ],
      [
        "c",
        "at"
      ],
      [
        "m",
        "cat"
      ],
      [
        "o",
        "mcat"
      ],
      [
        "Ġs",
        "erveur"
      ],
      [
        "lic",
        "ation"
      ],
      [
        "ĠT",
        "omcat"
      ],
      [
        "DÃ©",
        "ma"
      ],
      [
        "co",
        "mpta"
      ],
      [
        "rr",
        "age"
      ],
      [
        "app",
        "lication"
      ],
      [
        "DÃ©ma",
        "rrage"
      ],
      [
        "11",
        "45"
      ],
      [
        "115",
        "0"
      ],
      [
        "b",
        "an"
      ],
      [
        "K",
        "an"
      ],
      [
        "ban",
        "Projet"
      ],
      [
        "Kan",
        "banProjet"
      ],
      [
        "11",
        "60"
      ],
      [
        "115",
        "5"
      ],
      [
        "Sui",
        "vi"
      ],
      [
        "G",
        "MA"
      ],
      [
        "GMA",
        "O"
      ],
      [
        "te",
        "Web"
      ],
      [
        "11",
        "85"
      ],
      [
        "11",
        "65"
      ],
      [
        "Re",
        "cherche"
      ],
      [
        "RE",
        "CH"
      ],
      [
        "ERC",
        "HE"
      ],
      [
        "RECH",
        "ERCHE"
      ],
      [
        "11",
        "75"
      ],
      [
        "i",
        "lo"
      ],
      [
        "11",
        "80"
      ],
      [
        "11",
        "90"
      ],
      [
        "11",
        "95"
      ],
      [
        "F",
        "e"
      ],
      [
        "s",
        "ence"
      ],
      [
        "ui",
        "lle"
      ],
      [
        "120",
        "0"
      ],
      [
        "Pre",
        "sence"
      ],
      [
        "Fe",
        "uille"
      ],
      [
        "11",
        "70"
      ],
      [
        "ed",
        "i"
      ],
      [
        "p",
        "lan"
      ],
      [
        "12",
        "15"
      ],
      [
        "F",
        "WEB"
      ],
      [
        "RE",
        "FWEB"
      ],
      [
        "E",
        "d"
      ],
      [
        "12",
        "20"
      ],
      [
        "12",
        "30"
      ],
      [
        "120",
        "5"
      ],
      [
        "FAC",
        "T"
      ],
      [
        "12",
        "40"
      ],
      [
        "FACT",
        "UR"
      ],
      [
        "12",
        "10"
      ],
      [
        "12",
        "25"
      ],
      [
        "FACTUR",
        "ATION"
      ],
      [
        "p",
        "e"
      ],
      [
        "12",
        "45"
      ],
      [
        "12",
        "35"
      ],
      [
        "In",
        "fo"
      ],
      [
        "125",
        "0"
      ],
      [
        "12",
        "60"
      ],
      [
        "125",
        "5"
      ],
      [
        "12",
        "70"
      ],
      [
        "12",
        "75"
      ],
      [
        "p",
        "ilo"
      ],
      [
        "12",
        "65"
      ],
      [
        "12",
        "85"
      ],
      [
        "Plan",
        "ExecForm"
      ],
      [
        "plan",
        "exec"
      ],
      [
        "12",
        "80"
      ],
      [
        "12",
        "90"
      ],
      [
        "FOR",
        "M"
      ],
      [
        "130",
        "0"
      ],
      [
        "FORM",
        "DEV"
      ],
      [
        "i",
        "g"
      ],
      [
        "13",
        "20"
      ],
      [
        "0",
        "1"
      ],
      [
        "12",
        "95"
      ],
      [
        "13",
        "10"
      ],
      [
        "F",
        "acture"
      ],
      [
        "130",
        "5"
      ],
      [
        "Form",
        "ation"
      ],
      [
        "13",
        "25"
      ],
      [
        "13",
        "15"
      ],
      [
        "13",
        "35"
      ],
      [
        "TO",
        "UR"
      ],
      [
        "13",
        "40"
      ],
      [
        "13",
        "30"
      ],
      [
        "CasTest",
        "ExecForm"
      ],
      [
        "castest",
        "exec"
      ],
      [
        "APPRO",
        "WEB"
      ],
      [
        "13",
        "45"
      ],
      [
        "135",
        "0"
      ],
      [
        "13",
        "60"
      ],
      [
        "F",
        "R"
      ],
      [
        "B",
        "onTravail"
      ],
      [
        "13",
        "70"
      ],
      [
        "b",
        "t"
      ],
      [
        "135",
        "5"
      ],
      [
        "BonTravail",
        "Form"
      ],
      [
        "M",
        "od"
      ],
      [
        "Ġ",
        "l"
      ],
      [
        "13",
        "65"
      ],
      [
        "13",
        "75"
      ],
      [
        "13",
        "85"
      ],
      [
        "13",
        "80"
      ],
      [
        "13",
        "90"
      ],
      [
        "Co",
        "pilo"
      ],
      [
        "140",
        "0"
      ],
      [
        "P",
        "AT"
      ],
      [
        "13",
        "95"
      ],
      [
        "PAT",
        "CH"
      ],
      [
        "14",
        "10"
      ],
      [
        "D",
        "F"
      ],
      [
        "N",
        "DF"
      ],
      [
        "140",
        "5"
      ],
      [
        "14",
        "15"
      ],
      [
        "14",
        "20"
      ],
      [
        "14",
        "25"
      ],
      [
        "14",
        "30"
      ],
      [
        "14",
        "35"
      ],
      [
        "n",
        "a"
      ],
      [
        "14",
        "40"
      ],
      [
        "DB",
        "A"
      ],
      [
        "145",
        "0"
      ],
      [
        "A",
        "U"
      ],
      [
        "14",
        "45"
      ],
      [
        "14",
        "60"
      ],
      [
        "14",
        "65"
      ],
      [
        "L",
        "E"
      ],
      [
        "De",
        "v"
      ],
      [
        "145",
        "5"
      ],
      [
        "s",
        "o"
      ],
      [
        "Suivi",
        "Dev"
      ],
      [
        "SuiviDev",
        "s"
      ],
      [
        "E",
        "dit"
      ],
      [
        "14",
        "75"
      ],
      [
        "MO",
        "D"
      ],
      [
        "15",
        "00"
      ],
      [
        "14",
        "90"
      ],
      [
        "14",
        "70"
      ],
      [
        "15",
        "10"
      ],
      [
        "14",
        "80"
      ],
      [
        "14",
        "85"
      ],
      [
        "14",
        "95"
      ],
      [
        "A",
        "u"
      ],
      [
        "150",
        "5"
      ],
      [
        "15",
        "15"
      ],
      [
        "15",
        "20"
      ],
      [
        "Recherche",
        "Info"
      ],
      [
        "RECHERCHE",
        "INFO"
      ],
      [
        "RechercheInfo",
        "Controller"
      ],
      [
        "M",
        "ic"
      ],
      [
        "V",
        "R"
      ],
      [
        "f",
        "t"
      ],
      [
        "Ġ",
        "Ed"
      ],
      [
        "ro",
        "so"
      ],
      [
        "Mic",
        "roso"
      ],
      [
        "ĠEd",
        "ge"
      ],
      [
        "Microso",
        "ft"
      ],
      [
        "15",
        "30"
      ],
      [
        "15",
        "40"
      ],
      [
        "y",
        "out"
      ],
      [
        "La",
        "yout"
      ],
      [
        "C",
        "VR"
      ],
      [
        "MA",
        "T"
      ],
      [
        "CVR",
        "H"
      ],
      [
        "p",
        "la"
      ],
      [
        "pla",
        "ce"
      ],
      [
        "ue",
        "s"
      ],
      [
        "15",
        "25"
      ],
      [
        "15",
        "35"
      ],
      [
        "15",
        "45"
      ],
      [
        "PRO",
        "C"
      ],
      [
        "LA",
        "B"
      ],
      [
        "ACC",
        "ES"
      ],
      [
        "MA",
        "NDE"
      ],
      [
        "COM",
        "MANDE"
      ],
      [
        "15",
        "55"
      ],
      [
        "a",
        "m"
      ],
      [
        "15",
        "60"
      ],
      [
        "15",
        "90"
      ],
      [
        "15",
        "50"
      ],
      [
        "15",
        "65"
      ],
      [
        "N",
        "AT"
      ],
      [
        "15",
        "75"
      ],
      [
        "15",
        "70"
      ],
      [
        "Com",
        "mande"
      ],
      [
        "e",
        "le"
      ],
      [
        "15",
        "80"
      ],
      [
        "160",
        "0"
      ],
      [
        "V",
        "teForm"
      ],
      [
        "15",
        "85"
      ],
      [
        "15",
        "95"
      ],
      [
        "160",
        "5"
      ],
      [
        "t",
        "or"
      ],
      [
        "M",
        "at"
      ],
      [
        "DEMA",
        "T"
      ],
      [
        "16",
        "15"
      ],
      [
        "16",
        "10"
      ],
      [
        "16",
        "20"
      ],
      [
        "16",
        "25"
      ],
      [
        "16",
        "35"
      ],
      [
        "16",
        "60"
      ],
      [
        "16",
        "30"
      ],
      [
        "16",
        "45"
      ],
      [
        "Personne",
        "Form"
      ],
      [
        "ment",
        "Form"
      ],
      [
        "or",
        "t"
      ],
      [
        "FOR",
        "MA"
      ],
      [
        "16",
        "40"
      ],
      [
        "165",
        "0"
      ],
      [
        "16",
        "70"
      ],
      [
        "165",
        "5"
      ],
      [
        "16",
        "75"
      ],
      [
        "16",
        "80"
      ],
      [
        "170",
        "5"
      ],
      [
        "r",
        "ais"
      ],
      [
        "16",
        "95"
      ],
      [
        "17",
        "25"
      ],
      [
        "16",
        "65"
      ],
      [
        "16",
        "85"
      ],
      [
        "16",
        "90"
      ],
      [
        "17",
        "10"
      ],
      [
        "ar",
        "am"
      ],
      [
        "FORMA",
        "TION"
      ],
      [
        "17",
        "15"
      ],
      [
        "achats",
        "ventes"
      ],
      [
        "17",
        "20"
      ],
      [
        "17",
        "40"
      ],
      [
        "170",
        "0"
      ],
      [
        "au",
        "t"
      ],
      [
        "alog",
        "ic"
      ],
      [
        "An",
        "alogic"
      ],
      [
        "ANAL",
        "OGIC"
      ],
      [
        "f",
        "aut"
      ],
      [
        "DÃ©",
        "faut"
      ],
      [
        "17",
        "35"
      ],
      [
        "17",
        "30"
      ],
      [
        "175",
        "5"
      ],
      [
        "na",
        "ture"
      ],
      [
        "175",
        "0"
      ],
      [
        "180",
        "0"
      ],
      [
        "17",
        "45"
      ],
      [
        "17",
        "85"
      ],
      [
        "B",
        "A"
      ],
      [
        "17",
        "60"
      ],
      [
        "17",
        "70"
      ],
      [
        "17",
        "65"
      ],
      [
        "270",
        "01"
      ],
      [
        "17",
        "80"
      ],
      [
        "I",
        "ONN"
      ],
      [
        "ST",
        "IONN"
      ],
      [
        "17",
        "75"
      ],
      [
        "17",
        "90"
      ],
      [
        "STIONN",
        "AIRE"
      ],
      [
        "A",
        "ch"
      ],
      [
        "B",
        "I"
      ],
      [
        "C",
        "lient"
      ],
      [
        "E",
        "STIONNAIRE"
      ],
      [
        "M",
        "BI"
      ],
      [
        "T",
        "OR"
      ],
      [
        "tion",
        "n"
      ],
      [
        "FICHIER",
        "BA"
      ],
      [
        "180",
        "5"
      ],
      [
        "QU",
        "ESTIONNAIRE"
      ],
      [
        "TOR",
        "MBI"
      ],
      [
        "FICHIERBA",
        "SE"
      ],
      [
        "Q",
        "ues"
      ],
      [
        "S",
        "OL"
      ],
      [
        "ic",
        "ation"
      ],
      [
        "CON",
        "SOL"
      ],
      [
        "Ques",
        "tionn"
      ],
      [
        "Acti",
        "Tache"
      ],
      [
        "17",
        "95"
      ],
      [
        "un",
        "i"
      ],
      [
        "O",
        "pp"
      ],
      [
        "teWeb",
        "Controller"
      ],
      [
        "ort",
        "uni"
      ],
      [
        "Opp",
        "ortuni"
      ],
      [
        "Opportuni",
        "teWebController"
      ],
      [
        "18",
        "10"
      ],
      [
        "f",
        "b"
      ],
      [
        "18",
        "30"
      ],
      [
        "Ach",
        "Form"
      ],
      [
        "er",
        "ne"
      ],
      [
        "18",
        "15"
      ],
      [
        "18",
        "20"
      ],
      [
        "18",
        "25"
      ],
      [
        "185",
        "0"
      ],
      [
        "18",
        "40"
      ],
      [
        "18",
        "35"
      ],
      [
        "E",
        "I"
      ],
      [
        "S",
        "Y"
      ],
      [
        "18",
        "60"
      ],
      [
        "SY",
        "N"
      ],
      [
        "i",
        "d"
      ],
      [
        "18",
        "45"
      ],
      [
        "185",
        "5"
      ],
      [
        "18",
        "65"
      ],
      [
        "18",
        "70"
      ],
      [
        "18",
        "75"
      ],
      [
        "18",
        "80"
      ],
      [
        "190",
        "5"
      ],
      [
        "U",
        "LI"
      ],
      [
        "MO",
        "ULI"
      ],
      [
        "P",
        "aram"
      ],
      [
        "MOBI",
        "TOUR"
      ],
      [
        "190",
        "0"
      ],
      [
        "18",
        "85"
      ],
      [
        "18",
        "90"
      ],
      [
        "18",
        "95"
      ],
      [
        "MOBI",
        "CRM"
      ],
      [
        "L",
        "ERC"
      ],
      [
        "Ġ",
        "-"
      ],
      [
        "LERC",
        "NAT"
      ],
      [
        "19",
        "10"
      ],
      [
        "19",
        "20"
      ],
      [
        "19",
        "40"
      ],
      [
        "19",
        "15"
      ],
      [
        "19",
        "30"
      ],
      [
        "19",
        "35"
      ],
      [
        "195",
        "0"
      ],
      [
        "Commande",
        "VteForm"
      ],
      [
        "19",
        "25"
      ],
      [
        "19",
        "45"
      ],
      [
        "if",
        "ication"
      ],
      [
        "PRO",
        "D"
      ],
      [
        "on",
        "g"
      ],
      [
        "195",
        "5"
      ],
      [
        "Ġl",
        "ong"
      ],
      [
        "S",
        "PATCH"
      ],
      [
        "w",
        "eb"
      ],
      [
        "DI",
        "SPATCH"
      ],
      [
        "C",
        "T"
      ],
      [
        "CT",
        "PROD"
      ],
      [
        "19",
        "95"
      ],
      [
        "a",
        "re"
      ],
      [
        "19",
        "70"
      ],
      [
        "19",
        "80"
      ],
      [
        "S",
        "h"
      ],
      [
        "d",
        "Controller"
      ],
      [
        "teWeb",
        "Sh"
      ],
      [
        "Copilo",
        "teWebSh"
      ],
      [
        "are",
        "dController"
      ],
      [
        "CopiloteWebSh",
        "aredController"
      ],
      [
        "Ġ",
        "info"
      ],
      [
        "nt",
        "re"
      ],
      [
        "ce",
        "ntre"
      ],
      [
        "19",
        "60"
      ],
      [
        "Launch",
        "Form"
      ],
      [
        "Ġinfo",
        "centre"
      ],
      [
        "19",
        "65"
      ],
      [
        "LA",
        "IRE"
      ],
      [
        "MU",
        "LAIRE"
      ],
      [
        "FOR",
        "MULAIRE"
      ],
      [
        "19",
        "75"
      ],
      [
        "Layout",
        "Controller"
      ],
      [
        "OL",
        "OGIC"
      ],
      [
        "INF",
        "OLOGIC"
      ],
      [
        "19",
        "85"
      ],
      [
        "ro",
        "i"
      ],
      [
        "19",
        "90"
      ],
      [
        "Fiche",
        "Client"
      ],
      [
        "FicheClient",
        "Controller"
      ],
      [
        "200",
        "5"
      ],
      [
        "20",
        "00"
      ],
      [
        "20",
        "30"
      ],
      [
        "20",
        "50"
      ],
      [
        "C",
        "DE"
      ],
      [
        "20",
        "15"
      ],
      [
        "q",
        "ui"
      ],
      [
        "20",
        "10"
      ],
      [
        "20",
        "20"
      ],
      [
        "20",
        "45"
      ],
      [
        "qui",
        "pe"
      ],
      [
        "20",
        "40"
      ],
      [
        "20",
        "65"
      ],
      [
        "al",
        "id"
      ],
      [
        "20",
        "80"
      ],
      [
        "O",
        "U"
      ],
      [
        "Form",
        "Controller"
      ],
      [
        "20",
        "25"
      ],
      [
        "20",
        "35"
      ],
      [
        "20",
        "55"
      ],
      [
        "edi",
        "tor"
      ],
      [
        "20",
        "70"
      ],
      [
        "20",
        "90"
      ],
      [
        "20",
        "75"
      ],
      [
        "o",
        "i"
      ],
      [
        "20",
        "85"
      ],
      [
        "A",
        "IS"
      ],
      [
        "20",
        "60"
      ],
      [
        "roi",
        "ts"
      ],
      [
        "F",
        "rais"
      ],
      [
        "20",
        "95"
      ],
      [
        "NOTE",
        "FR"
      ],
      [
        "NOTEFR",
        "AIS"
      ],
      [
        "S",
        "y"
      ],
      [
        "Sy",
        "n"
      ],
      [
        "2",
        "100"
      ],
      [
        "DEM",
        "O"
      ],
      [
        "2",
        "110"
      ],
      [
        "2",
        "165"
      ],
      [
        "L",
        "S"
      ],
      [
        "TI",
        "LS"
      ],
      [
        "OU",
        "TILS"
      ],
      [
        "OUTILS",
        "PARAMETRAGE"
      ],
      [
        "2",
        "125"
      ],
      [
        "2",
        "135"
      ],
      [
        "2",
        "105"
      ],
      [
        "A",
        "D"
      ],
      [
        "p",
        "on"
      ],
      [
        "Re",
        "pon"
      ],
      [
        "se",
        "Questionn"
      ],
      [
        "Mat",
        "Controller"
      ],
      [
        "SYN",
        "MAT"
      ],
      [
        "Syn",
        "MatController"
      ],
      [
        "AD",
        "M"
      ],
      [
        "Repon",
        "seQuestionn"
      ],
      [
        "2",
        "150"
      ],
      [
        "2",
        "115"
      ],
      [
        "2",
        "120"
      ],
      [
        "s",
        "f"
      ],
      [
        "Pro",
        "g"
      ],
      [
        "2",
        "130"
      ],
      [
        "2",
        "145"
      ],
      [
        "2",
        "160"
      ],
      [
        "De",
        "place"
      ],
      [
        "di",
        "tion"
      ],
      [
        "AU",
        "DI"
      ],
      [
        "2",
        "155"
      ],
      [
        "A",
        "GE"
      ],
      [
        "d",
        "roits"
      ],
      [
        "2",
        "140"
      ],
      [
        "N",
        "E"
      ],
      [
        "Formation",
        "Form"
      ],
      [
        "FORMATION",
        "S"
      ],
      [
        "Prog",
        "FormationForm"
      ],
      [
        "2",
        "190"
      ],
      [
        "2",
        "180"
      ],
      [
        "2",
        "170"
      ],
      [
        "2",
        "175"
      ],
      [
        "2",
        "185"
      ],
      [
        "S",
        "ig"
      ],
      [
        "Facture",
        "AchForm"
      ],
      [
        "Sig",
        "nature"
      ],
      [
        "2",
        "195"
      ],
      [
        "MOD",
        "OP"
      ],
      [
        "B",
        "K"
      ],
      [
        "2",
        "200"
      ],
      [
        "Edit",
        "Facture"
      ],
      [
        "EditFacture",
        "Form"
      ],
      [
        "2",
        "205"
      ],
      [
        "22",
        "10"
      ],
      [
        "22",
        "15"
      ],
      [
        "INFO",
        "C"
      ],
      [
        "U",
        "LE"
      ],
      [
        "Mod",
        "ule"
      ],
      [
        "MOD",
        "ULE"
      ],
      [
        "Param",
        "Module"
      ],
      [
        "Ã©",
        "dition"
      ],
      [
        "22",
        "30"
      ],
      [
        "22",
        "20"
      ],
      [
        "22",
        "35"
      ],
      [
        "22",
        "25"
      ],
      [
        "22",
        "40"
      ],
      [
        "225",
        "0"
      ],
      [
        "22",
        "45"
      ],
      [
        "225",
        "5"
      ],
      [
        "E",
        "WEB"
      ],
      [
        "S",
        "i"
      ],
      [
        "22",
        "70"
      ],
      [
        "22",
        "95"
      ],
      [
        "CONSOL",
        "EWEB"
      ],
      [
        "Q",
        "u"
      ],
      [
        "22",
        "75"
      ],
      [
        "Qu",
        "al"
      ],
      [
        "V",
        "alid"
      ],
      [
        "22",
        "65"
      ],
      [
        "Copilo",
        "teForm"
      ],
      [
        "Qual",
        "ification"
      ],
      [
        "22",
        "80"
      ],
      [
        "22",
        "85"
      ],
      [
        "Devi",
        "s"
      ],
      [
        "22",
        "60"
      ],
      [
        "22",
        "90"
      ],
      [
        "INFO",
        "COMPTE"
      ],
      [
        "230",
        "0"
      ],
      [
        "0",
        "55"
      ],
      [
        "23",
        "15"
      ],
      [
        "230",
        "5"
      ],
      [
        "235",
        "0"
      ],
      [
        "P",
        "r"
      ],
      [
        "Frais",
        "Form"
      ],
      [
        "L",
        "N"
      ],
      [
        "S",
        "tac"
      ],
      [
        "T",
        "able"
      ],
      [
        "U",
        "LN"
      ],
      [
        "V",
        "ULN"
      ],
      [
        "e",
        "CopiloteForm"
      ],
      [
        "re",
        "eCopiloteForm"
      ],
      [
        "Ent",
        "reeCopiloteForm"
      ],
      [
        "23",
        "20"
      ],
      [
        "23",
        "25"
      ],
      [
        "Demande",
        "s"
      ],
      [
        "PATCH",
        "VULN"
      ],
      [
        "Qualification",
        "EntreeCopiloteForm"
      ],
      [
        "Edit",
        "Devis"
      ],
      [
        "23",
        "35"
      ],
      [
        "23",
        "40"
      ],
      [
        "r",
        "te"
      ],
      [
        "AC",
        "K"
      ],
      [
        "23",
        "10"
      ],
      [
        "235",
        "5"
      ],
      [
        "Notes",
        "FraisForm"
      ],
      [
        "IN",
        "T"
      ],
      [
        "23",
        "30"
      ],
      [
        "23",
        "45"
      ],
      [
        "I",
        "E"
      ],
      [
        "Int",
        "erne"
      ],
      [
        "J",
        "our"
      ],
      [
        "A",
        "S"
      ],
      [
        "A",
        "le"
      ],
      [
        "23",
        "75"
      ],
      [
        "Ale",
        "rte"
      ],
      [
        "ST",
        "ACK"
      ],
      [
        "23",
        "60"
      ],
      [
        "Recherche",
        "Stac"
      ],
      [
        "RECHERCHE",
        "STACK"
      ],
      [
        "RechercheStac",
        "kController"
      ],
      [
        "Ġ",
        "INTER"
      ],
      [
        "23",
        "80"
      ],
      [
        "se",
        "ur"
      ],
      [
        "ĠINTER",
        "NE"
      ],
      [
        "d",
        "ialog"
      ],
      [
        "u",
        "p"
      ],
      [
        "23",
        "70"
      ],
      [
        "24",
        "30"
      ],
      [
        "23",
        "65"
      ],
      [
        "23",
        "90"
      ],
      [
        "24",
        "25"
      ],
      [
        "de",
        "place"
      ],
      [
        "ActiTache",
        "Controller"
      ],
      [
        "deplace",
        "ment"
      ],
      [
        ".",
        "$,"
      ],
      [
        "A",
        "V"
      ],
      [
        "25",
        "15"
      ],
      [
        "24",
        "40"
      ],
      [
        "23",
        "85"
      ],
      [
        "Analogic",
        "Table"
      ],
      [
        "Deplace",
        "mentForm"
      ],
      [
        "AnalogicTable",
        "FormController"
      ],
      [
        "0",
        "10"
      ],
      [
        "M",
        "L"
      ],
      [
        "24",
        "15"
      ],
      [
        "24",
        "20"
      ],
      [
        "Appel",
        "Jour"
      ],
      [
        "240",
        "5"
      ],
      [
        "M",
        "on"
      ],
      [
        "P",
        "ON"
      ],
      [
        "24",
        "10"
      ],
      [
        "M",
        "P"
      ],
      [
        "RE",
        "PON"
      ],
      [
        "240",
        "0"
      ],
      [
        "245",
        "5"
      ],
      [
        "ReponseQuestionn",
        "aireController"
      ],
      [
        "REPON",
        "SE"
      ],
      [
        "24",
        "35"
      ],
      [
        "24",
        "70"
      ],
      [
        "24",
        "65"
      ],
      [
        "24",
        "85"
      ],
      [
        "23",
        "95"
      ],
      [
        "L",
        "o"
      ],
      [
        "T",
        "MAT"
      ],
      [
        "24",
        "75"
      ],
      [
        "24",
        "95"
      ],
      [
        "AR",
        "TMAT"
      ],
      [
        "245",
        "0"
      ],
      [
        "ParamModule",
        "Controller"
      ],
      [
        "Lo",
        "g"
      ],
      [
        "A",
        "B"
      ],
      [
        "T",
        "AB"
      ],
      [
        "25",
        "10"
      ],
      [
        "24",
        "60"
      ],
      [
        "24",
        "90"
      ],
      [
        "Pro",
        "fi"
      ],
      [
        "TAB",
        "LE"
      ],
      [
        "l",
        "Controller"
      ],
      [
        "m",
        "on"
      ],
      [
        "24",
        "45"
      ],
      [
        "250",
        "5"
      ],
      [
        "Mon",
        "Profi"
      ],
      [
        "MonProfi",
        "lController"
      ],
      [
        "r",
        "t"
      ],
      [
        "d",
        "f"
      ],
      [
        "25",
        "60"
      ],
      [
        "24",
        "80"
      ],
      [
        "Au",
        "dit"
      ],
      [
        "25",
        "20"
      ],
      [
        "25",
        "30"
      ],
      [
        "25",
        "70"
      ],
      [
        "D",
        "ialog"
      ],
      [
        "25",
        "35"
      ],
      [
        "25",
        "00"
      ],
      [
        "25",
        "65"
      ],
      [
        "25",
        "80"
      ],
      [
        "com",
        "mande"
      ],
      [
        "AC",
        "APPRO"
      ],
      [
        "25",
        "25"
      ],
      [
        "25",
        "40"
      ],
      [
        "25",
        "55"
      ],
      [
        "ed",
        "fb"
      ],
      [
        "26",
        "30"
      ],
      [
        "Ed",
        "fb"
      ],
      [
        "Edfb",
        "Form"
      ],
      [
        "25",
        "85"
      ],
      [
        "25",
        "75"
      ],
      [
        "25",
        "95"
      ],
      [
        "260",
        "0"
      ],
      [
        "lo",
        "c"
      ],
      [
        "aire",
        "Form"
      ],
      [
        "25",
        "90"
      ],
      [
        "H",
        "EB"
      ],
      [
        "CR",
        "ES"
      ],
      [
        "25",
        "45"
      ],
      [
        "25",
        "50"
      ],
      [
        "Fiche",
        "Re"
      ],
      [
        "CRES",
        "OC"
      ],
      [
        "b",
        "loc"
      ],
      [
        "26",
        "15"
      ],
      [
        "bloc",
        "age"
      ],
      [
        "B",
        "D"
      ],
      [
        "Pr",
        "od"
      ],
      [
        "260",
        "5"
      ],
      [
        "26",
        "10"
      ],
      [
        "acture",
        "s"
      ],
      [
        "sf",
        "actures"
      ],
      [
        "commande",
        "sfactures"
      ],
      [
        "n",
        "se"
      ],
      [
        "26",
        "20"
      ],
      [
        "ig",
        "ne"
      ],
      [
        "nse",
        "igne"
      ],
      [
        "O",
        "b"
      ],
      [
        "i",
        "v"
      ],
      [
        "l",
        "ig"
      ],
      [
        "n",
        "es"
      ],
      [
        "p",
        "re"
      ],
      [
        "re",
        "Dialog"
      ],
      [
        "at",
        "oi"
      ],
      [
        "26",
        "25"
      ],
      [
        "26",
        "35"
      ],
      [
        "26",
        "70"
      ],
      [
        "26",
        "95"
      ],
      [
        "ActiTache",
        "Ob"
      ],
      [
        "lig",
        "atoi"
      ],
      [
        "ActiTacheOb",
        "ligatoi"
      ],
      [
        "ActiTacheObligatoi",
        "reDialog"
      ],
      [
        "E",
        "ti"
      ],
      [
        "t",
        "teForm"
      ],
      [
        "ment",
        "sForm"
      ],
      [
        "que",
        "tteForm"
      ],
      [
        "ation",
        "FicheRe"
      ],
      [
        "Fichier",
        "Eti"
      ],
      [
        "265",
        "5"
      ],
      [
        "26",
        "40"
      ],
      [
        "Valid",
        "ationFicheRe"
      ],
      [
        "nseigne",
        "mentsForm"
      ],
      [
        "FichierEti",
        "quetteForm"
      ],
      [
        "ValidationFicheRe",
        "nseignementsForm"
      ],
      [
        "AN",
        "A"
      ],
      [
        "265",
        "0"
      ],
      [
        "26",
        "85"
      ],
      [
        "26",
        "90"
      ],
      [
        "Ġ",
        "DÃ©faut"
      ],
      [
        "activite",
        "s"
      ],
      [
        "26",
        "45"
      ],
      [
        "26",
        "75"
      ],
      [
        "R",
        "ES"
      ],
      [
        "Ġ",
        "Person"
      ],
      [
        "26",
        "60"
      ],
      [
        "ĠPerson",
        "nes"
      ],
      [
        "26",
        "65"
      ],
      [
        "F",
        "ac"
      ],
      [
        "R",
        "OL"
      ],
      [
        "d",
        "si"
      ],
      [
        "270",
        "0"
      ],
      [
        "26",
        "80"
      ],
      [
        "Suivi",
        "Prod"
      ],
      [
        "ROL",
        "L"
      ],
      [
        "SuiviProd",
        "Log"
      ],
      [
        "M",
        "es"
      ],
      [
        "270",
        "5"
      ],
      [
        "D",
        "AGE"
      ],
      [
        "mod",
        "ele"
      ],
      [
        "VI",
        "DAGE"
      ],
      [
        "27",
        "10"
      ],
      [
        "de",
        "v"
      ],
      [
        "View",
        "er"
      ],
      [
        "CO",
        "VAL"
      ],
      [
        "27",
        "15"
      ],
      [
        "27",
        "35"
      ],
      [
        "A",
        "rt"
      ],
      [
        "D",
        "O"
      ],
      [
        "S",
        "erv"
      ],
      [
        "IN",
        "DI"
      ],
      [
        "CRM",
        "Form"
      ],
      [
        "00",
        "2"
      ],
      [
        "Accueil",
        "CRMForm"
      ],
      [
        "IS",
        "O"
      ],
      [
        "27",
        "20"
      ],
      [
        "Layout",
        "NestedWindow"
      ],
      [
        "n",
        "is"
      ],
      [
        "our",
        "nis"
      ],
      [
        "HEB",
        "DO"
      ],
      [
        "ournis",
        "seur"
      ],
      [
        "C",
        "de"
      ],
      [
        "a",
        "g"
      ],
      [
        "mp",
        "ag"
      ],
      [
        "Fiche",
        "Art"
      ],
      [
        "Mat",
        "Form"
      ],
      [
        "RES",
        "P"
      ],
      [
        "mpag",
        "ne"
      ],
      [
        "FicheArt",
        "MatForm"
      ],
      [
        "RE",
        "C"
      ],
      [
        "Au",
        "di"
      ],
      [
        "s",
        "age"
      ],
      [
        "27",
        "25"
      ],
      [
        "Mes",
        "sage"
      ],
      [
        "E",
        "quipe"
      ],
      [
        "28",
        "20"
      ],
      [
        "CasTest",
        "Form"
      ],
      [
        "F",
        "ournisseur"
      ],
      [
        "V",
        "is"
      ],
      [
        "c",
        "de"
      ],
      [
        "Vis",
        "u"
      ],
      [
        ")",
        ">"
      ],
      [
        "27",
        "30"
      ],
      [
        "27",
        "45"
      ],
      [
        "t",
        "NestedWindow"
      ],
      [
        "Inpu",
        "tNestedWindow"
      ],
      [
        "DOC",
        "A"
      ],
      [
        "275",
        "5"
      ],
      [
        "27",
        "40"
      ],
      [
        "27",
        "60"
      ],
      [
        "27",
        "70"
      ],
      [
        "Cde",
        "InputNestedWindow"
      ],
      [
        "ON",
        "S"
      ],
      [
        "DEM",
        "ONS"
      ],
      [
        "275",
        "0"
      ],
      [
        "27",
        "85"
      ],
      [
        "Mod",
        "ele"
      ],
      [
        "c",
        "ri"
      ],
      [
        "p",
        "o"
      ],
      [
        "s",
        "s"
      ],
      [
        "F",
        "ACTI"
      ],
      [
        "S",
        "AT"
      ],
      [
        "IS",
        "FACTI"
      ],
      [
        "27",
        "65"
      ],
      [
        "27",
        "75"
      ],
      [
        "27",
        "80"
      ],
      [
        "SAT",
        "ISFACTI"
      ],
      [
        "SATISFACTI",
        "ON"
      ],
      [
        "de",
        "mande"
      ],
      [
        "Demande",
        "Controller"
      ],
      [
        "P",
        "V"
      ],
      [
        "280",
        "5"
      ],
      [
        "27",
        "90"
      ],
      [
        "28",
        "45"
      ],
      [
        "Equipe",
        "mentForm"
      ],
      [
        "PV",
        "REC"
      ],
      [
        "A",
        "GES"
      ],
      [
        "S",
        "AGES"
      ],
      [
        "l",
        "Form"
      ],
      [
        "MES",
        "SAGES"
      ],
      [
        "Plan",
        "if"
      ],
      [
        "Q",
        "L"
      ],
      [
        "S",
        "q"
      ],
      [
        "ES",
        "QL"
      ],
      [
        "28",
        "30"
      ],
      [
        "28",
        "35"
      ],
      [
        "28",
        "40"
      ],
      [
        "CONSOL",
        "ESQL"
      ],
      [
        "Sq",
        "lForm"
      ],
      [
        "e",
        "quipe"
      ],
      [
        "285",
        "0"
      ],
      [
        "27",
        "95"
      ],
      [
        "28",
        "15"
      ],
      [
        "equipe",
        "ment"
      ],
      [
        "si",
        "g"
      ],
      [
        "280",
        "0"
      ],
      [
        "28",
        "10"
      ],
      [
        "28",
        "65"
      ],
      [
        "int",
        "erne"
      ],
      [
        "TableauBord",
        "FBController"
      ],
      [
        "285",
        "5"
      ],
      [
        "28",
        "25"
      ],
      [
        "Signature",
        "InterventionController"
      ],
      [
        "sig",
        "nature"
      ],
      [
        "0",
        "30"
      ],
      [
        "G",
        "BD"
      ],
      [
        "M",
        "S"
      ],
      [
        "e",
        "re"
      ],
      [
        "Form",
        "ulaire"
      ],
      [
        "MS",
        "GBD"
      ],
      [
        "X",
        "PL"
      ],
      [
        "28",
        "60"
      ],
      [
        "C",
        "ES"
      ],
      [
        "L",
        "ic"
      ],
      [
        "IC",
        "EN"
      ],
      [
        "28",
        "70"
      ],
      [
        "TL",
        "ICEN"
      ],
      [
        "ence",
        "sForm"
      ],
      [
        "AUDI",
        "TLICEN"
      ],
      [
        "Audit",
        "Lic"
      ],
      [
        "AUDITLICEN",
        "CES"
      ],
      [
        "AuditLic",
        "encesForm"
      ],
      [
        "R",
        "IER"
      ],
      [
        "s",
        "c"
      ],
      [
        "Formulaire",
        "Form"
      ],
      [
        "B",
        "ar"
      ],
      [
        "S",
        "ele"
      ],
      [
        "c",
        "tor"
      ],
      [
        "e",
        "Intervention"
      ],
      [
        "e",
        "intervention"
      ],
      [
        "g",
        "ation"
      ],
      [
        "p",
        "t"
      ],
      [
        "mod",
        "eintervention"
      ],
      [
        "vi",
        "gation"
      ],
      [
        "Window",
        "Sele"
      ],
      [
        "TacheDataViewVC",
        "HomeView"
      ],
      [
        "Mod",
        "eIntervention"
      ],
      [
        "na",
        "vigation"
      ],
      [
        "ctor",
        "Controller"
      ],
      [
        "WindowSele",
        "ctorController"
      ],
      [
        "ModeIntervention",
        "Form"
      ],
      [
        "navigation",
        "Bar"
      ],
      [
        "290",
        "0"
      ],
      [
        "28",
        "85"
      ],
      [
        "28",
        "75"
      ],
      [
        "28",
        "95"
      ],
      [
        "rais",
        "on"
      ],
      [
        "iv",
        "raison"
      ],
      [
        "290",
        "5"
      ],
      [
        "28",
        "80"
      ],
      [
        "29",
        "15"
      ],
      [
        "DEF",
        "AU"
      ],
      [
        "28",
        "90"
      ],
      [
        "29",
        "10"
      ],
      [
        "29",
        "45"
      ],
      [
        "29",
        "85"
      ],
      [
        "2",
        "1"
      ],
      [
        "F",
        "EV"
      ],
      [
        "20",
        "21"
      ],
      [
        "29",
        "30"
      ],
      [
        "FEV",
        "RIER"
      ],
      [
        "29",
        "35"
      ],
      [
        "Re",
        "v"
      ],
      [
        "29",
        "25"
      ],
      [
[...]
